unsigned char anomaly_model_tflite[] = {
  0x1c, 0x00, 0x00, 0x00, 0x54, 0x46, 0x4c, 0x33, 0x14, 0x00, 0x20, 0x00,
  0x1c, 0x00, 0x18, 0x00, 0x14, 0x00, 0x10, 0x00, 0x0c, 0x00, 0x00, 0x00,
  0x08, 0x00, 0x04, 0x00, 0x14, 0x00, 0x00, 0x00, 0x1c, 0x00, 0x00, 0x00,
  0x8c, 0x00, 0x00, 0x00, 0x0c, 0x01, 0x00, 0x00, 0x94, 0x0d, 0x00, 0x00,
  0xa4, 0x0d, 0x00, 0x00, 0xc0, 0x23, 0x00, 0x00, 0x03, 0x00, 0x00, 0x00,
  0x01, 0x00, 0x00, 0x00, 0x04, 0x00, 0x00, 0x00, 0x2a, 0xf1, 0xff, 0xff,
  0x0c, 0x00, 0x00, 0x00, 0x1c, 0x00, 0x00, 0x00, 0x3c, 0x00, 0x00, 0x00,
  0x0f, 0x00, 0x00, 0x00, 0x73, 0x65, 0x72, 0x76, 0x69, 0x6e, 0x67, 0x5f,
  0x64, 0x65, 0x66, 0x61, 0x75, 0x6c, 0x74, 0x00, 0x01, 0x00, 0x00, 0x00,
  0x04, 0x00, 0x00, 0x00, 0x68, 0xff, 0xff, 0xff, 0x17, 0x00, 0x00, 0x00,
  0x04, 0x00, 0x00, 0x00, 0x08, 0x00, 0x00, 0x00, 0x6f, 0x75, 0x74, 0x70,
  0x75, 0x74, 0x5f, 0x30, 0x00, 0x00, 0x00, 0x00, 0x01, 0x00, 0x00, 0x00,
  0x04, 0x00, 0x00, 0x00, 0x1e, 0xf2, 0xff, 0xff, 0x04, 0x00, 0x00, 0x00,
  0x0c, 0x00, 0x00, 0x00, 0x6b, 0x65, 0x72, 0x61, 0x73, 0x5f, 0x74, 0x65,
  0x6e, 0x73, 0x6f, 0x72, 0x00, 0x00, 0x00, 0x00, 0x03, 0x00, 0x00, 0x00,
  0x5c, 0x00, 0x00, 0x00, 0x2c, 0x00, 0x00, 0x00, 0x04, 0x00, 0x00, 0x00,
  0xb8, 0xff, 0xff, 0xff, 0x1b, 0x00, 0x00, 0x00, 0x04, 0x00, 0x00, 0x00,
  0x13, 0x00, 0x00, 0x00, 0x43, 0x4f, 0x4e, 0x56, 0x45, 0x52, 0x53, 0x49,
  0x4f, 0x4e, 0x5f, 0x4d, 0x45, 0x54, 0x41, 0x44, 0x41, 0x54, 0x41, 0x00,
  0xdc, 0xff, 0xff, 0xff, 0x1a, 0x00, 0x00, 0x00, 0x04, 0x00, 0x00, 0x00,
  0x13, 0x00, 0x00, 0x00, 0x6d, 0x69, 0x6e, 0x5f, 0x72, 0x75, 0x6e, 0x74,
  0x69, 0x6d, 0x65, 0x5f, 0x76, 0x65, 0x72, 0x73, 0x69, 0x6f, 0x6e, 0x00,
  0x08, 0x00, 0x0c, 0x00, 0x08, 0x00, 0x04, 0x00, 0x08, 0x00, 0x00, 0x00,
  0x19, 0x00, 0x00, 0x00, 0x04, 0x00, 0x00, 0x00, 0x13, 0x00, 0x00, 0x00,
  0x6d, 0x69, 0x6e, 0x5f, 0x72, 0x75, 0x6e, 0x74, 0x69, 0x6d, 0x65, 0x5f,
  0x76, 0x65, 0x72, 0x73, 0x69, 0x6f, 0x6e, 0x00, 0x1c, 0x00, 0x00, 0x00,
  0x84, 0x0c, 0x00, 0x00, 0x7c, 0x0c, 0x00, 0x00, 0x64, 0x0c, 0x00, 0x00,
  0x50, 0x0c, 0x00, 0x00, 0x3c, 0x0c, 0x00, 0x00, 0x28, 0x0c, 0x00, 0x00,
  0x14, 0x0c, 0x00, 0x00, 0xb4, 0x0b, 0x00, 0x00, 0x24, 0x09, 0x00, 0x00,
  0x94, 0x08, 0x00, 0x00, 0x84, 0x06, 0x00, 0x00, 0x34, 0x06, 0x00, 0x00,
  0x24, 0x04, 0x00, 0x00, 0x94, 0x03, 0x00, 0x00, 0x04, 0x01, 0x00, 0x00,
  0xfc, 0x00, 0x00, 0x00, 0xf4, 0x00, 0x00, 0x00, 0xec, 0x00, 0x00, 0x00,
  0xe4, 0x00, 0x00, 0x00, 0xdc, 0x00, 0x00, 0x00, 0xd4, 0x00, 0x00, 0x00,
  0xcc, 0x00, 0x00, 0x00, 0xc4, 0x00, 0x00, 0x00, 0xbc, 0x00, 0x00, 0x00,
  0xb4, 0x00, 0x00, 0x00, 0x94, 0x00, 0x00, 0x00, 0x74, 0x00, 0x00, 0x00,
  0x04, 0x00, 0x00, 0x00, 0x32, 0xf3, 0xff, 0xff, 0x04, 0x00, 0x00, 0x00,
  0x60, 0x00, 0x00, 0x00, 0x0c, 0x00, 0x00, 0x00, 0x08, 0x00, 0x0e, 0x00,
  0x08, 0x00, 0x04, 0x00, 0x08, 0x00, 0x00, 0x00, 0x10, 0x00, 0x00, 0x00,
  0x28, 0x00, 0x00, 0x00, 0x00, 0x00, 0x06, 0x00, 0x08, 0x00, 0x04, 0x00,
  0x06, 0x00, 0x00, 0x00, 0x04, 0x00, 0x00, 0x00, 0x01, 0x00, 0x00, 0x00,
  0xeb, 0x03, 0x00, 0x00, 0x0c, 0x00, 0x18, 0x00, 0x14, 0x00, 0x10, 0x00,
  0x0c, 0x00, 0x04, 0x00, 0x0c, 0x00, 0x00, 0x00, 0x62, 0xd3, 0x86, 0x28,
  0x8d, 0x91, 0x25, 0x61, 0x02, 0x00, 0x00, 0x00, 0x02, 0x00, 0x00, 0x00,
  0x04, 0x00, 0x00, 0x00, 0x06, 0x00, 0x00, 0x00, 0x32, 0x2e, 0x31, 0x39,
  0x2e, 0x30, 0x00, 0x00, 0x9e, 0xf3, 0xff, 0xff, 0x04, 0x00, 0x00, 0x00,
  0x10, 0x00, 0x00, 0x00, 0x00, 0x00, 0x00, 0x00, 0x00, 0x00, 0x00, 0x00,
  0x00, 0x00, 0x00, 0x00, 0x00, 0x00, 0x00, 0x00, 0xba, 0xf3, 0xff, 0xff,
  0x04, 0x00, 0x00, 0x00, 0x10, 0x00, 0x00, 0x00, 0x31, 0x2e, 0x31, 0x34,
  0x2e, 0x30, 0x00, 0x00, 0x00, 0x00, 0x00, 0x00, 0x00, 0x00, 0x00, 0x00,
  0x24, 0xdf, 0xff, 0xff, 0x28, 0xdf, 0xff, 0xff, 0x2c, 0xdf, 0xff, 0xff,
  0x30, 0xdf, 0xff, 0xff, 0x34, 0xdf, 0xff, 0xff, 0x38, 0xdf, 0xff, 0xff,
  0x3c, 0xdf, 0xff, 0xff, 0x40, 0xdf, 0xff, 0xff, 0x44, 0xdf, 0xff, 0xff,
  0x48, 0xdf, 0xff, 0xff, 0xfe, 0xf3, 0xff, 0xff, 0x04, 0x00, 0x00, 0x00,
  0x80, 0x02, 0x00, 0x00, 0x7d, 0x95, 0xbd, 0xf0, 0xea, 0x95, 0x01, 0x8b,
  0xc8, 0xb9, 0x1f, 0xb6, 0xd8, 0xc8, 0xf0, 0x59, 0xb8, 0x81, 0xad, 0x9c,
  0x7a, 0x2c, 0x23, 0x32, 0x0d, 0xf6, 0xd5, 0x50, 0xe7, 0xe0, 0x26, 0x44,
  0xac, 0x81, 0x21, 0x64, 0x29, 0xc5, 0x4f, 0x00, 0x0c, 0xd7, 0x39, 0xd0,
  0x15, 0x7f, 0xcc, 0x22, 0x35, 0xae, 0x15, 0xb9, 0x1e, 0x0a, 0xeb, 0x31,
  0x4d, 0x35, 0x25, 0xb7, 0x3a, 0xe9, 0x54, 0xac, 0xa5, 0x66, 0x7f, 0xe9,
  0xcd, 0x12, 0x3d, 0xb9, 0x30, 0x86, 0xaa, 0x0c, 0x29, 0x5a, 0x34, 0x62,
  0xd8, 0x19, 0x15, 0xff, 0x0d, 0x5d, 0x02, 0x81, 0x63, 0x3d, 0x72, 0xea,
  0xdf, 0x2b, 0xc1, 0x53, 0x1c, 0x1f, 0xed, 0xcc, 0xf7, 0xdd, 0x0d, 0x11,
  0xe2, 0x22, 0x3b, 0x55, 0x39, 0x38, 0x2a, 0x81, 0x2e, 0xbc, 0x09, 0x42,
  0xe2, 0xe9, 0x3c, 0x03, 0xcf, 0xc1, 0xcd, 0x57, 0x27, 0x16, 0x06, 0x1e,
  0x4c, 0xd8, 0x57, 0xf8, 0x49, 0x81, 0x92, 0x18, 0xf5, 0x38, 0x4c, 0x2c,
  0x3e, 0xd3, 0xfb, 0x7f, 0x28, 0xf8, 0x19, 0xe4, 0xc0, 0xed, 0x3c, 0xe6,
  0x18, 0xfd, 0x27, 0xc7, 0x13, 0xff, 0xfb, 0x33, 0x0b, 0xae, 0x45, 0x5c,
  0x29, 0x52, 0xf6, 0x0e, 0x20, 0xe9, 0x29, 0xac, 0xc9, 0x9c, 0xd9, 0x11,
  0x15, 0x67, 0x7f, 0x1e, 0x7f, 0xbd, 0x29, 0xfb, 0xa5, 0x4c, 0xe0, 0xa1,
  0xf7, 0xe9, 0x1c, 0x40, 0x13, 0xda, 0x55, 0xf8, 0x41, 0xed, 0x47, 0x7a,
  0x2a, 0xc7, 0x21, 0xd9, 0x24, 0xf0, 0x85, 0xfb, 0x56, 0xc3, 0x81, 0x47,
  0xa2, 0xa6, 0x47, 0xf8, 0x3c, 0xd4, 0xff, 0xab, 0x47, 0x47, 0x55, 0x11,
  0xa7, 0x81, 0xfb, 0x57, 0x33, 0x1d, 0x11, 0x31, 0x31, 0x48, 0xc8, 0xb1,
  0x68, 0x1c, 0x3d, 0x2d, 0xf9, 0x55, 0xbd, 0xe9, 0x3a, 0x2b, 0x7f, 0x05,
  0xe5, 0xed, 0x49, 0x16, 0x30, 0xdc, 0xc4, 0xda, 0xd4, 0x5b, 0xf3, 0xeb,
  0xee, 0xfe, 0xf8, 0xf1, 0x64, 0xd2, 0x63, 0x7f, 0x40, 0xab, 0x0e, 0x27,
  0xfc, 0x50, 0xca, 0x9c, 0xbf, 0x19, 0x08, 0x7f, 0xfc, 0x19, 0x4c, 0x2c,
  0xbf, 0xd5, 0x0d, 0xb1, 0x44, 0x7f, 0xf5, 0x04, 0x4e, 0x1e, 0xf1, 0xa7,
  0x12, 0x07, 0x34, 0x68, 0x7f, 0xc2, 0xe6, 0x15, 0x08, 0x4c, 0x5e, 0xfd,
  0x47, 0xe4, 0x02, 0xfb, 0xc7, 0x18, 0x2f, 0x05, 0xfb, 0x77, 0xcf, 0x96,
  0x2b, 0x25, 0x05, 0xfb, 0xe4, 0x2e, 0x02, 0x7f, 0x1e, 0xc6, 0x25, 0xa5,
  0x12, 0x99, 0x17, 0x48, 0xfa, 0x30, 0x37, 0xeb, 0x7a, 0xb9, 0xbd, 0x04,
  0x7d, 0x51, 0xc7, 0xe4, 0x8f, 0x74, 0x14, 0x81, 0x54, 0x4e, 0xe4, 0x2e,
  0x00, 0xed, 0x55, 0x5f, 0x62, 0xe9, 0xc7, 0xf7, 0x28, 0x2d, 0x0e, 0xfe,
  0xfc, 0x1e, 0x7f, 0x3d, 0x04, 0xe1, 0xc4, 0x82, 0xe8, 0x66, 0x75, 0x17,
  0x09, 0x17, 0xde, 0xac, 0x40, 0x34, 0x97, 0x9f, 0xc2, 0xb4, 0x9e, 0x7f,
  0x4f, 0x13, 0xaf, 0xc0, 0x24, 0x8f, 0xcf, 0xf7, 0xe7, 0x50, 0x18, 0xdf,
  0xdc, 0xc8, 0x48, 0x27, 0x08, 0xe6, 0xcb, 0x45, 0x7f, 0xf5, 0xf7, 0x45,
  0x23, 0xc9, 0xde, 0x54, 0x26, 0x6b, 0x44, 0xf0, 0x52, 0xac, 0x81, 0xdc,
  0xb4, 0x0e, 0x16, 0x51, 0x72, 0xd4, 0x35, 0x34, 0xc7, 0x49, 0x20, 0xf4,
  0x2d, 0x01, 0x16, 0xe5, 0x73, 0x43, 0xd0, 0xe5, 0x4c, 0xf5, 0xb5, 0x12,
  0x06, 0xd7, 0x75, 0x05, 0x81, 0xf1, 0x7e, 0x12, 0x03, 0xbd, 0x2c, 0x06,
  0xed, 0x2f, 0xbc, 0x05, 0xc5, 0xbd, 0x4b, 0x22, 0x4f, 0x7f, 0x1f, 0xc3,
  0xfa, 0x30, 0x3b, 0xc8, 0xfb, 0xcb, 0x1f, 0x32, 0x23, 0x06, 0xfa, 0x42,
  0x60, 0xf6, 0x8d, 0xd7, 0xc5, 0xb1, 0x23, 0x81, 0xfa, 0xc8, 0xbe, 0xa3,
  0xf3, 0x8c, 0x35, 0x21, 0xeb, 0x7f, 0x16, 0x10, 0xeb, 0xf7, 0x32, 0x13,
  0x3e, 0xdf, 0xe4, 0x27, 0xe6, 0xd6, 0x0f, 0x0e, 0x9f, 0x81, 0xa7, 0x26,
  0xa5, 0xc9, 0x32, 0x39, 0xf5, 0x49, 0xb3, 0x3b, 0xb8, 0x96, 0x1d, 0xa6,
  0x9d, 0xa3, 0x4a, 0xb9, 0xd8, 0x84, 0x1c, 0x7f, 0x23, 0xcf, 0x2f, 0x04,
  0x20, 0xfc, 0x06, 0xdc, 0x32, 0xf3, 0xee, 0x4d, 0x10, 0x49, 0xfc, 0xe8,
  0xe6, 0x03, 0x0d, 0x29, 0xd8, 0x53, 0x31, 0x14, 0xe2, 0x21, 0x81, 0xd9,
  0x52, 0xc9, 0x6c, 0xed, 0x0d, 0x5c, 0x36, 0xd5, 0x15, 0xcc, 0x8d, 0xe4,
  0x5b, 0x1d, 0x7f, 0x22, 0x22, 0x14, 0x0f, 0xb9, 0x10, 0x09, 0x62, 0x46,
  0xd3, 0xe0, 0xd9, 0xec, 0x81, 0xa7, 0x94, 0xe0, 0xbf, 0x3e, 0xad, 0x32,
  0xd4, 0x02, 0xba, 0xde, 0x23, 0x96, 0x63, 0xb4, 0x83, 0x21, 0x21, 0xc7,
  0x0b, 0xf4, 0xeb, 0x2f, 0xef, 0x05, 0x5c, 0x02, 0x5b, 0x1a, 0x88, 0x46,
  0x15, 0xf1, 0x61, 0xb9, 0xf3, 0x4c, 0x36, 0x7f, 0x8a, 0xf6, 0xff, 0xff,
  0x04, 0x00, 0x00, 0x00, 0x80, 0x00, 0x00, 0x00, 0x00, 0x00, 0x00, 0x00,
  0x00, 0xf4, 0xff, 0xff, 0x57, 0x08, 0x00, 0x00, 0xf7, 0x02, 0x00, 0x00,
  0x8a, 0x1c, 0x00, 0x00, 0x30, 0x03, 0x00, 0x00, 0x92, 0x14, 0x00, 0x00,
  0x9a, 0x06, 0x00, 0x00, 0xd1, 0x01, 0x00, 0x00, 0x67, 0x01, 0x00, 0x00,
  0x8f, 0xe8, 0xff, 0xff, 0xb0, 0xfe, 0xff, 0xff, 0x07, 0x1e, 0x00, 0x00,
  0xd6, 0x0f, 0x00, 0x00, 0x55, 0x11, 0x00, 0x00, 0x34, 0x14, 0x00, 0x00,
  0xbf, 0xf7, 0xff, 0xff, 0xe3, 0x0b, 0x00, 0x00, 0xed, 0xf1, 0xff, 0xff,
  0x00, 0x00, 0x00, 0x00, 0xb4, 0x1a, 0x00, 0x00, 0xca, 0x0e, 0x00, 0x00,
  0x6a, 0x10, 0x00, 0x00, 0x06, 0x1a, 0x00, 0x00, 0x41, 0xf8, 0xff, 0xff,
  0xca, 0x15, 0x00, 0x00, 0x00, 0x00, 0x00, 0x00, 0x4e, 0x11, 0x00, 0x00,
  0x94, 0x0a, 0x00, 0x00, 0x63, 0x13, 0x00, 0x00, 0x00, 0x00, 0x00, 0x00,
  0x0c, 0x0c, 0x00, 0x00, 0x16, 0xf7, 0xff, 0xff, 0x04, 0x00, 0x00, 0x00,
  0x00, 0x02, 0x00, 0x00, 0xee, 0xd7, 0xb5, 0x40, 0xcc, 0x26, 0x19, 0x7f,
  0x55, 0x65, 0xf1, 0x6a, 0xcd, 0x3b, 0x5c, 0xdc, 0x00, 0x22, 0x3e, 0xfe,
  0xde, 0xcd, 0xf0, 0x33, 0xda, 0x1b, 0x35, 0xfc, 0x0b, 0x96, 0x39, 0x39,
  0x17, 0xec, 0x13, 0x8d, 0x89, 0xd1, 0x9c, 0xcd, 0xd3, 0xac, 0xb0, 0xd4,
  0x58, 0xd6, 0x9e, 0xef, 0x57, 0x51, 0xf1, 0xbf, 0x14, 0x7f, 0x22, 0x30,
  0x14, 0xe0, 0x47, 0xbf, 0xf0, 0xb1, 0x94, 0xac, 0xfe, 0x0a, 0xd2, 0x5e,
  0xe3, 0x34, 0xd8, 0x23, 0xf4, 0x22, 0xd1, 0x10, 0x7f, 0x0d, 0xa6, 0x54,
  0x4e, 0xfd, 0x1c, 0x33, 0x13, 0xa3, 0xf8, 0x96, 0xdc, 0xdf, 0x29, 0xf3,
  0x56, 0x59, 0xd4, 0x3e, 0x37, 0x51, 0x01, 0x7f, 0x74, 0xd1, 0x5e, 0xf8,
  0x2c, 0x75, 0x15, 0xbb, 0x6a, 0xbf, 0x1c, 0xca, 0xd6, 0x66, 0x39, 0xb7,
  0x00, 0xe1, 0x49, 0x9b, 0xcd, 0x5d, 0xcb, 0x90, 0xad, 0x17, 0xb4, 0x05,
  0x01, 0xcd, 0x01, 0x13, 0x4b, 0x2c, 0x62, 0x2f, 0x3e, 0xc1, 0xda, 0xd0,
  0x7f, 0x2e, 0xd6, 0x2d, 0xd0, 0x4d, 0x45, 0x1d, 0x9f, 0xeb, 0x32, 0x39,
  0x08, 0x26, 0x12, 0x35, 0xfe, 0x20, 0x27, 0xe2, 0x0c, 0xf8, 0xe4, 0xeb,
  0xea, 0x0f, 0x33, 0xd8, 0x4d, 0xed, 0x16, 0xc9, 0xd2, 0x32, 0x0f, 0xc6,
  0x1d, 0xe3, 0xd4, 0xfe, 0x08, 0x2a, 0x7f, 0xbd, 0x0f, 0x15, 0x2c, 0x09,
  0x5c, 0x2b, 0x20, 0x51, 0xfd, 0x22, 0x5b, 0xf5, 0xa4, 0xcd, 0x72, 0x26,
  0xf1, 0x4d, 0xe4, 0xba, 0x24, 0xbe, 0x9c, 0x6e, 0x10, 0xa3, 0xcd, 0x0b,
  0x26, 0x06, 0xdb, 0x50, 0x36, 0x75, 0xf6, 0x7f, 0x70, 0xd9, 0x49, 0x2e,
  0x60, 0x81, 0x2d, 0xc9, 0x9a, 0x4e, 0x04, 0xbf, 0x46, 0x03, 0xe9, 0x5c,
  0xfc, 0xdf, 0xb8, 0xc3, 0x88, 0xa9, 0xef, 0xd7, 0x49, 0x8a, 0xfe, 0x89,
  0x9c, 0xdf, 0xcd, 0xd6, 0xf7, 0xb4, 0x0f, 0x35, 0x29, 0x0a, 0x5c, 0x4a,
  0xd7, 0x03, 0x24, 0xcb, 0x4e, 0xdd, 0x0e, 0x26, 0x0b, 0xd6, 0x31, 0xd8,
  0x72, 0xde, 0x5c, 0x06, 0xdd, 0x7f, 0x11, 0x3e, 0x2b, 0xf6, 0xef, 0xcc,
  0x61, 0xa0, 0x12, 0xcd, 0x2d, 0x69, 0x2a, 0x14, 0x22, 0x7e, 0x5c, 0xfd,
  0x64, 0xdf, 0xc8, 0x1e, 0x8e, 0xba, 0x06, 0x4f, 0x7f, 0x15, 0x2b, 0x3e,
  0xd3, 0xe4, 0xbd, 0xb2, 0x39, 0x1c, 0xd5, 0x56, 0xd4, 0x21, 0xc2, 0xc0,
  0x3c, 0x33, 0x4d, 0x18, 0xba, 0x32, 0xff, 0xf2, 0x25, 0x1d, 0x3a, 0x17,
  0xd1, 0x3f, 0xa2, 0xd6, 0x53, 0x62, 0x13, 0x07, 0xf5, 0xc1, 0x7f, 0x3b,
  0xf2, 0x2f, 0xe4, 0xce, 0xe8, 0x42, 0xeb, 0xde, 0x02, 0xfa, 0x6c, 0xdb,
  0x48, 0xe0, 0x15, 0xb2, 0x7f, 0x2b, 0xbe, 0x24, 0xf5, 0x68, 0x41, 0x79,
  0x1c, 0x93, 0x4f, 0x42, 0x9e, 0x85, 0x0e, 0x1a, 0xc3, 0xeb, 0x08, 0xa9,
  0xc8, 0xbc, 0x31, 0x6e, 0x0f, 0x9b, 0x70, 0x68, 0x4e, 0x58, 0x8b, 0x07,
  0x09, 0x48, 0xfe, 0x0b, 0xa4, 0xa1, 0x4b, 0x0d, 0x04, 0x35, 0xc9, 0x1f,
  0x08, 0x9b, 0x02, 0x22, 0x1a, 0x3f, 0xd7, 0xea, 0x7f, 0x26, 0xc0, 0x27,
  0x70, 0x1a, 0xcb, 0x5b, 0x1f, 0xc7, 0x45, 0x39, 0x27, 0xdf, 0xf9, 0xdf,
  0x36, 0xed, 0x1c, 0xa2, 0x92, 0x81, 0x5d, 0x73, 0x04, 0x46, 0xb3, 0x90,
  0xb1, 0xb7, 0x18, 0xbd, 0x00, 0x4a, 0xc7, 0xd8, 0xa4, 0xc9, 0xd1, 0xec,
  0x8e, 0xa5, 0x38, 0x3b, 0xbe, 0x30, 0x60, 0x82, 0x6c, 0xfb, 0x06, 0xc7,
  0x0e, 0x8e, 0xea, 0x18, 0x37, 0xc2, 0xaf, 0xfd, 0x81, 0x65, 0x8e, 0x78,
  0xf2, 0x6a, 0xe0, 0xd0, 0xc5, 0xe9, 0x1c, 0x72, 0x48, 0x4f, 0x69, 0xf7,
  0x03, 0xda, 0x05, 0x34, 0x7f, 0x3f, 0xfd, 0xa9, 0x08, 0xc3, 0x0c, 0x34,
  0x38, 0x92, 0x91, 0x0b, 0x04, 0x76, 0xef, 0xfe, 0xd1, 0x1a, 0x09, 0xf3,
  0x22, 0xf9, 0xff, 0xff, 0x04, 0x00, 0x00, 0x00, 0x40, 0x00, 0x00, 0x00,
  0x1a, 0xfe, 0xff, 0xff, 0xcd, 0xfd, 0xff, 0xff, 0x31, 0x00, 0x00, 0x00,
  0x83, 0xfe, 0xff, 0xff, 0x4d, 0x02, 0x00, 0x00, 0xf7, 0x06, 0x00, 0x00,
  0xc1, 0x04, 0x00, 0x00, 0x75, 0xff, 0xff, 0xff, 0x44, 0xff, 0xff, 0xff,
  0x71, 0xfe, 0xff, 0xff, 0x14, 0x03, 0x00, 0x00, 0x31, 0x0c, 0x00, 0x00,
  0xfd, 0x09, 0x00, 0x00, 0xe6, 0xf7, 0xff, 0xff, 0x5d, 0xfe, 0xff, 0xff,
  0xd4, 0x0a, 0x00, 0x00, 0x6e, 0xf9, 0xff, 0xff, 0x04, 0x00, 0x00, 0x00,
  0x00, 0x02, 0x00, 0x00, 0x29, 0x27, 0x0b, 0xed, 0x81, 0xb8, 0x3c, 0x1f,
  0x24, 0x26, 0xcb, 0x17, 0x53, 0xca, 0xd4, 0x34, 0xd6, 0x21, 0x0a, 0x74,
  0x09, 0x7f, 0x47, 0xd1, 0x4f, 0xcd, 0xb6, 0x0f, 0x18, 0xfe, 0x33, 0xe5,
  0x3e, 0xd1, 0x48, 0x9e, 0x6a, 0xf6, 0xad, 0x42, 0xc6, 0x7f, 0xcf, 0x1b,
  0x41, 0xb7, 0x49, 0x39, 0x11, 0xfc, 0x81, 0x16, 0xfa, 0x18, 0xe1, 0xd6,
  0x77, 0x18, 0x47, 0x06, 0xf8, 0x0f, 0xe0, 0x97, 0x5d, 0xc8, 0x53, 0x7f,
  0xfe, 0x9d, 0x02, 0x30, 0x17, 0xf3, 0xd3, 0x14, 0xf1, 0xfe, 0xce, 0xfc,
  0x81, 0xef, 0x14, 0x71, 0xd6, 0x36, 0xc5, 0xc9, 0x1d, 0x73, 0x1d, 0x9b,
  0x59, 0x15, 0x40, 0x1f, 0xf3, 0xc9, 0x3c, 0x14, 0xca, 0x18, 0x1f, 0x22,
  0xf4, 0x3d, 0xe8, 0x7f, 0xdb, 0xe4, 0xcf, 0x39, 0x2f, 0xbc, 0xc7, 0xb4,
  0xbc, 0x49, 0x7f, 0x2d, 0xf5, 0xfa, 0xdf, 0x56, 0x67, 0x19, 0xcf, 0x75,
  0x73, 0x55, 0xf2, 0x18, 0xae, 0xae, 0xca, 0xd9, 0x7f, 0x68, 0x00, 0x52,
  0xc6, 0x38, 0x38, 0x04, 0x05, 0xca, 0xdc, 0x39, 0x57, 0xf8, 0x5b, 0x4c,
  0x08, 0x50, 0x55, 0xe7, 0x48, 0xb9, 0x26, 0x81, 0x43, 0xce, 0x49, 0xaf,
  0xba, 0xb6, 0x48, 0xe2, 0x7f, 0x16, 0x3e, 0xb3, 0xdf, 0x23, 0x31, 0xc7,
  0xa9, 0xe9, 0x96, 0x00, 0x06, 0xed, 0x30, 0x44, 0xab, 0xc7, 0x12, 0x66,
  0x9b, 0x75, 0xc6, 0x81, 0x02, 0x0e, 0x40, 0xc9, 0xc5, 0x57, 0x3d, 0x33,
  0xee, 0xcd, 0x0a, 0x06, 0x57, 0x24, 0x25, 0x81, 0xfd, 0xdb, 0x33, 0x06,
  0x0f, 0xc9, 0x0b, 0xd8, 0x23, 0xb8, 0x2c, 0xf4, 0x5f, 0xe1, 0x17, 0x7f,
  0xdf, 0xde, 0x60, 0x4d, 0xad, 0x7f, 0xc4, 0xff, 0x3b, 0x0f, 0xc3, 0x2f,
  0x5c, 0xf2, 0x33, 0xba, 0x49, 0x3e, 0x2f, 0xb9, 0x39, 0xee, 0x11, 0xb5,
  0x21, 0xdb, 0x84, 0x49, 0x7f, 0xeb, 0x45, 0x9a, 0x2a, 0xea, 0x81, 0x8a,
  0x81, 0x7d, 0x0a, 0x7e, 0x2f, 0x1e, 0x8f, 0xed, 0x95, 0xfe, 0x2e, 0xbe,
  0x3f, 0xb5, 0x66, 0x9e, 0x7f, 0x70, 0xe9, 0x21, 0x28, 0x22, 0x05, 0x87,
  0x9f, 0xe1, 0xc2, 0x2b, 0x46, 0xf4, 0x37, 0xff, 0xd5, 0x99, 0x9c, 0xbb,
  0xcc, 0x7a, 0x18, 0x6e, 0x7f, 0x10, 0x1a, 0xf3, 0x06, 0xd8, 0xaa, 0xb8,
  0x42, 0xaa, 0xe3, 0x21, 0xaf, 0xc2, 0x81, 0x91, 0xda, 0x55, 0x16, 0xb3,
  0xf8, 0x34, 0xa1, 0x7f, 0x2c, 0x3a, 0xe8, 0x40, 0x48, 0x4d, 0xda, 0xff,
  0x09, 0x02, 0xf8, 0x42, 0x55, 0x33, 0xfc, 0x01, 0xfa, 0x7f, 0x90, 0x28,
  0xf5, 0xc2, 0x2d, 0x0b, 0x1a, 0xf9, 0x02, 0x34, 0x92, 0x66, 0xe8, 0x5d,
  0x85, 0xa3, 0x24, 0x81, 0xde, 0x4f, 0xdc, 0x05, 0xe6, 0xbd, 0xed, 0xd1,
  0x95, 0x6d, 0xb1, 0xa2, 0x9b, 0xfe, 0x2d, 0x86, 0xdc, 0x40, 0xc6, 0x60,
  0xb1, 0x81, 0xa4, 0xbf, 0x29, 0xfc, 0xde, 0x16, 0x0b, 0x15, 0xfe, 0x14,
  0x11, 0x34, 0x7f, 0x3f, 0x37, 0xdd, 0x33, 0x84, 0x73, 0x17, 0x3e, 0xf7,
  0x02, 0x2f, 0x26, 0xbc, 0x7f, 0xb8, 0x4e, 0x1a, 0xd3, 0xb1, 0xd4, 0xe6,
  0x24, 0xc6, 0xce, 0xf5, 0x81, 0xce, 0x4a, 0xfc, 0xad, 0xfb, 0xb2, 0x58,
  0xe1, 0x97, 0xd8, 0x9f, 0xa7, 0xbe, 0x43, 0xa0, 0xef, 0xfc, 0x49, 0xc7,
  0x7f, 0x63, 0x10, 0xeb, 0xc4, 0x02, 0x2e, 0x15, 0xd9, 0x77, 0x82, 0x81,
  0x87, 0xe2, 0x6d, 0xa9, 0xcf, 0xf2, 0x02, 0xb7, 0x51, 0x7f, 0x49, 0xbb,
  0xbc, 0xba, 0xf6, 0x0b, 0xf7, 0xf8, 0x81, 0x08, 0x21, 0xf1, 0x62, 0x3f,
  0x21, 0x00, 0xfa, 0x2b, 0xe6, 0x04, 0x0d, 0xc1, 0x47, 0xee, 0xaf, 0x2f,
  0x7f, 0xd0, 0x16, 0x6d, 0x18, 0x2f, 0xff, 0x08, 0x18, 0x0b, 0x1d, 0x1f,
  0x2a, 0x00, 0x4b, 0x2b, 0x8f, 0xd6, 0x1e, 0x7f, 0xc7, 0xc0, 0x18, 0x09,
  0x7a, 0xfb, 0xff, 0xff, 0x04, 0x00, 0x00, 0x00, 0x80, 0x00, 0x00, 0x00,
  0x57, 0xef, 0xff, 0xff, 0xdc, 0xf1, 0xff, 0xff, 0x16, 0xec, 0xff, 0xff,
  0x6b, 0x02, 0x00, 0x00, 0xfe, 0xf6, 0xff, 0xff, 0x34, 0xe7, 0xff, 0xff,
  0x2f, 0xf5, 0xff, 0xff, 0x44, 0x19, 0x00, 0x00, 0x4c, 0x0c, 0x00, 0x00,
  0xf2, 0x0b, 0x00, 0x00, 0xd1, 0x3e, 0x00, 0x00, 0x00, 0x00, 0x00, 0x00,
  0x67, 0xfd, 0xff, 0xff, 0xb3, 0xf3, 0xff, 0xff, 0x86, 0x1b, 0x00, 0x00,
  0x66, 0x19, 0x00, 0x00, 0xb1, 0xfe, 0xff, 0xff, 0xf3, 0x01, 0x00, 0x00,
  0xda, 0x08, 0x00, 0x00, 0x00, 0x00, 0x00, 0x00, 0xc9, 0x09, 0x00, 0x00,
  0x20, 0xfb, 0xff, 0xff, 0xe0, 0xfe, 0xff, 0xff, 0x00, 0x00, 0x00, 0x00,
  0xfa, 0xe3, 0xff, 0xff, 0x06, 0xd0, 0xff, 0xff, 0x00, 0x00, 0x00, 0x00,
  0xe7, 0xdf, 0xff, 0xff, 0x00, 0x00, 0x00, 0x00, 0x8e, 0x26, 0x00, 0x00,
  0xd3, 0xf8, 0xff, 0xff, 0xcb, 0x0d, 0x00, 0x00, 0x06, 0xfc, 0xff, 0xff,
  0x04, 0x00, 0x00, 0x00, 0x80, 0x02, 0x00, 0x00, 0x54, 0xf3, 0x0d, 0x41,
  0x6d, 0xeb, 0x05, 0x99, 0x10, 0x18, 0x1f, 0xfe, 0x7f, 0xf5, 0x06, 0xd5,
  0x0d, 0x21, 0x42, 0xea, 0xd1, 0xc6, 0xe3, 0xda, 0x24, 0xf6, 0xee, 0xec,
  0xe8, 0xff, 0xf0, 0x2c, 0xf3, 0x0a, 0xde, 0x07, 0x07, 0x7f, 0x29, 0xbe,
  0x33, 0xc7, 0x4d, 0xc3, 0xee, 0xef, 0x63, 0x1f, 0xe1, 0xf9, 0xcb, 0x3e,
  0x04, 0x00, 0xef, 0xe4, 0xa0, 0xf2, 0xf0, 0xa9, 0x27, 0x2a, 0x5c, 0xd9,
  0xc3, 0x24, 0xe0, 0x81, 0xd8, 0xfe, 0xe2, 0x6d, 0x2b, 0xff, 0x30, 0x0e,
  0xab, 0xd8, 0xfd, 0x08, 0x08, 0xc4, 0x25, 0xea, 0x1c, 0x0d, 0x0d, 0xd8,
  0xff, 0x14, 0xe0, 0xfc, 0xdc, 0x0e, 0x19, 0xb7, 0x07, 0xe5, 0x42, 0x04,
  0x2f, 0x57, 0x24, 0x2c, 0x0f, 0x29, 0x0a, 0x15, 0x01, 0x83, 0xb9, 0x2d,
  0xec, 0x2b, 0xda, 0xf7, 0x0a, 0x10, 0x1b, 0x10, 0xf9, 0x06, 0xe4, 0xc3,
  0xdb, 0x81, 0xe1, 0xf6, 0x81, 0xf4, 0xe5, 0xf9, 0xeb, 0x0d, 0xf7, 0xeb,
  0x0a, 0x09, 0x13, 0xe6, 0x19, 0xfb, 0xee, 0x21, 0xe7, 0x15, 0x09, 0xeb,
  0x25, 0x0a, 0xf1, 0xe7, 0xee, 0xf2, 0xe9, 0x05, 0x0e, 0x1a, 0xf6, 0x23,
  0xdf, 0x3a, 0xe6, 0x1e, 0x21, 0x4a, 0x2e, 0x05, 0xcb, 0x24, 0xa3, 0xcb,
  0xf3, 0x7f, 0xfc, 0xfd, 0x06, 0xa4, 0xd4, 0xe1, 0xdd, 0xf6, 0x3b, 0xe0,
  0x35, 0x1c, 0xf9, 0x0b, 0xfe, 0xef, 0x13, 0x11, 0xee, 0xea, 0x06, 0x81,
  0x1e, 0xbc, 0x19, 0x08, 0xd3, 0x0b, 0x15, 0x10, 0xf3, 0x20, 0x2c, 0xf1,
  0xe8, 0x20, 0x11, 0xf9, 0xf6, 0xf7, 0x00, 0x02, 0xf7, 0x13, 0xff, 0xe5,
  0xf8, 0x08, 0xf2, 0xe8, 0xc6, 0x8d, 0x04, 0x36, 0xb3, 0xde, 0x54, 0x3f,
  0x19, 0xde, 0x3b, 0xdc, 0xec, 0x3c, 0xd7, 0x8a, 0x51, 0x5a, 0x2f, 0xd3,
  0x81, 0x32, 0xe3, 0xb9, 0x12, 0x37, 0x52, 0x54, 0x3b, 0x26, 0x00, 0xd8,
  0x37, 0x1e, 0x2b, 0x7f, 0xd0, 0xf0, 0x66, 0x14, 0xe7, 0xe9, 0xb0, 0xdb,
  0x2a, 0xdd, 0x1b, 0xea, 0xff, 0xfc, 0x1b, 0xdd, 0xf9, 0x0b, 0x07, 0xef,
  0xe1, 0xf2, 0x1c, 0xf8, 0x19, 0x1c, 0x1c, 0x21, 0xfa, 0x09, 0x69, 0x07,
  0x3f, 0x8a, 0x9c, 0xb8, 0xe7, 0x04, 0xd1, 0xbf, 0xf7, 0xcf, 0x5b, 0x46,
  0xf3, 0xe8, 0x1e, 0x42, 0x35, 0x41, 0xc7, 0xdc, 0xde, 0xd2, 0xe2, 0x7f,
  0x3e, 0x22, 0xce, 0x87, 0x17, 0xfd, 0xf8, 0x04, 0xea, 0xff, 0xf4, 0xd3,
  0x15, 0x19, 0x29, 0x03, 0x81, 0xfe, 0xf3, 0x1f, 0x03, 0xfb, 0x1a, 0x0b,
  0x1a, 0xfc, 0x13, 0x20, 0xdb, 0x16, 0x0a, 0xff, 0xeb, 0x25, 0xde, 0x28,
  0x1d, 0x25, 0x81, 0xe2, 0x4b, 0x81, 0x24, 0x26, 0x12, 0x1f, 0x02, 0xe2,
  0x0b, 0xde, 0xff, 0xe5, 0x2b, 0xf7, 0xd0, 0x15, 0x1d, 0xff, 0x30, 0x2a,
  0xe6, 0xe5, 0xd2, 0x32, 0x0c, 0x1b, 0xdd, 0x57, 0x32, 0x34, 0x02, 0x7f,
  0x1c, 0xe7, 0xba, 0x27, 0xcb, 0x0f, 0x0a, 0xde, 0x5a, 0x59, 0xcd, 0xce,
  0x0a, 0x47, 0x04, 0x1a, 0xf9, 0x19, 0xd4, 0xf5, 0xb4, 0x0d, 0x1a, 0xf4,
  0x1a, 0xde, 0x05, 0xc7, 0x30, 0x81, 0x36, 0xcf, 0xdd, 0x06, 0x97, 0x13,
  0x06, 0x3a, 0x30, 0xe6, 0x1f, 0x07, 0xa8, 0x2e, 0xfd, 0xc9, 0xa8, 0x54,
  0xae, 0x49, 0xad, 0x30, 0x18, 0xa0, 0xe5, 0x8b, 0x0b, 0x72, 0x7c, 0x2d,
  0xed, 0x19, 0xfa, 0x00, 0xe9, 0x01, 0x00, 0x00, 0xd8, 0x1f, 0x3f, 0xef,
  0x81, 0xf3, 0x47, 0x33, 0x0f, 0xf5, 0xeb, 0x07, 0xb6, 0x1d, 0xe1, 0x17,
  0x1e, 0xf6, 0xe7, 0x01, 0xf8, 0x0c, 0xdd, 0x13, 0x3f, 0x1e, 0x2e, 0xb7,
  0x81, 0xe0, 0x1b, 0xcb, 0x1b, 0x3a, 0x78, 0x4a, 0x20, 0x03, 0x74, 0xa2,
  0xd1, 0xf3, 0xc6, 0x01, 0x7b, 0x8b, 0x52, 0x04, 0xf9, 0xc0, 0xb7, 0x81,
  0x4b, 0x45, 0x8e, 0x08, 0x81, 0xd9, 0x0e, 0x12, 0x30, 0x0f, 0x10, 0x30,
  0x2c, 0xf2, 0x20, 0xf3, 0x28, 0x0e, 0x04, 0x0b, 0x02, 0xd0, 0x17, 0xf3,
  0x05, 0xce, 0xf3, 0xf1, 0xdc, 0xf5, 0xee, 0x09, 0x03, 0x10, 0xd7, 0xf3,
  0xe5, 0x3e, 0x36, 0x25, 0xef, 0x33, 0x37, 0xd7, 0x25, 0xe4, 0xdb, 0xf2,
  0xf5, 0x05, 0x01, 0x60, 0xcb, 0x03, 0xd5, 0x19, 0xec, 0xa7, 0x0b, 0x2b,
  0xee, 0x47, 0xd2, 0xe1, 0xda, 0x81, 0x72, 0xd2, 0x4e, 0x04, 0x04, 0x81,
  0xd1, 0x96, 0xf6, 0xc3, 0x25, 0x16, 0xf2, 0x29, 0x2e, 0xe4, 0xf1, 0xcf,
  0xd7, 0x09, 0xdb, 0xea, 0x4e, 0x2d, 0xeb, 0xf8, 0x5b, 0x4b, 0x29, 0xdf,
  0xd4, 0x12, 0x41, 0xc9, 0xc6, 0x13, 0x1c, 0x3f, 0x1f, 0x76, 0x17, 0x03,
  0x23, 0xca, 0xe6, 0x30, 0xda, 0x26, 0xef, 0xdd, 0xef, 0xd5, 0xff, 0x19,
  0xce, 0x7f, 0x11, 0xe8, 0x0e, 0x40, 0xee, 0xc8, 0x06, 0xb4, 0xab, 0x1a,
  0x92, 0xfe, 0xff, 0xff, 0x04, 0x00, 0x00, 0x00, 0x50, 0x00, 0x00, 0x00,
  0x80, 0xf8, 0xff, 0xff, 0x44, 0x0d, 0x00, 0x00, 0x3e, 0x0b, 0x00, 0x00,
  0xbe, 0xf6, 0xff, 0xff, 0xf1, 0x0e, 0x00, 0x00, 0x9c, 0xdc, 0xff, 0xff,
  0x38, 0x01, 0x00, 0x00, 0x1d, 0xed, 0xff, 0xff, 0x99, 0xfe, 0xff, 0xff,
  0x5b, 0xfa, 0xff, 0xff, 0xdc, 0x07, 0x00, 0x00, 0x44, 0x0f, 0x00, 0x00,
  0xab, 0x01, 0x00, 0x00, 0xae, 0x14, 0x00, 0x00, 0x1b, 0x0c, 0x00, 0x00,
  0x20, 0x0d, 0x00, 0x00, 0x8e, 0x04, 0x00, 0x00, 0x0d, 0xee, 0xff, 0xff,
  0xa6, 0xef, 0xff, 0xff, 0x56, 0xf5, 0xff, 0xff, 0xee, 0xfe, 0xff, 0xff,
  0x04, 0x00, 0x00, 0x00, 0x04, 0x00, 0x00, 0x00, 0x00, 0x00, 0x00, 0x00,
  0xfe, 0xfe, 0xff, 0xff, 0x04, 0x00, 0x00, 0x00, 0x04, 0x00, 0x00, 0x00,
  0x01, 0x00, 0x00, 0x00, 0x0e, 0xff, 0xff, 0xff, 0x04, 0x00, 0x00, 0x00,
  0x04, 0x00, 0x00, 0x00, 0x0a, 0x00, 0x00, 0x00, 0x1e, 0xff, 0xff, 0xff,
  0x04, 0x00, 0x00, 0x00, 0x04, 0x00, 0x00, 0x00, 0x02, 0x00, 0x00, 0x00,
  0x2e, 0xff, 0xff, 0xff, 0x04, 0x00, 0x00, 0x00, 0x08, 0x00, 0x00, 0x00,
  0xff, 0xff, 0xff, 0xff, 0x14, 0x00, 0x00, 0x00, 0x90, 0xea, 0xff, 0xff,
  0x94, 0xea, 0xff, 0xff, 0x0f, 0x00, 0x00, 0x00, 0x4d, 0x4c, 0x49, 0x52,
  0x20, 0x43, 0x6f, 0x6e, 0x76, 0x65, 0x72, 0x74, 0x65, 0x64, 0x2e, 0x00,
  0x01, 0x00, 0x00, 0x00, 0x14, 0x00, 0x00, 0x00, 0x00, 0x00, 0x0e, 0x00,
  0x18, 0x00, 0x14, 0x00, 0x10, 0x00, 0x0c, 0x00, 0x08, 0x00, 0x04, 0x00,
  0x0e, 0x00, 0x00, 0x00, 0x14, 0x00, 0x00, 0x00, 0x1c, 0x00, 0x00, 0x00,
  0x6c, 0x02, 0x00, 0x00, 0x70, 0x02, 0x00, 0x00, 0x74, 0x02, 0x00, 0x00,
  0x04, 0x00, 0x00, 0x00, 0x6d, 0x61, 0x69, 0x6e, 0x00, 0x00, 0x00, 0x00,
  0x0a, 0x00, 0x00, 0x00, 0x30, 0x02, 0x00, 0x00, 0xe0, 0x01, 0x00, 0x00,
  0x94, 0x01, 0x00, 0x00, 0x58, 0x01, 0x00, 0x00, 0x20, 0x01, 0x00, 0x00,
  0xfc, 0x00, 0x00, 0x00, 0xbc, 0x00, 0x00, 0x00, 0x6c, 0x00, 0x00, 0x00,
  0x28, 0x00, 0x00, 0x00, 0x04, 0x00, 0x00, 0x00, 0x02, 0xfe, 0xff, 0xff,
  0x08, 0x00, 0x00, 0x00, 0x0c, 0x00, 0x00, 0x00, 0x01, 0x00, 0x00, 0x00,
  0x17, 0x00, 0x00, 0x00, 0x02, 0x00, 0x00, 0x00, 0x13, 0x00, 0x00, 0x00,
  0x16, 0x00, 0x00, 0x00, 0x72, 0xfe, 0xff, 0xff, 0x1c, 0x00, 0x00, 0x00,
  0x00, 0x00, 0x00, 0x3b, 0x1c, 0x00, 0x00, 0x00, 0x20, 0x00, 0x00, 0x00,
  0x05, 0x00, 0x00, 0x00, 0x00, 0x00, 0x06, 0x00, 0x08, 0x00, 0x04, 0x00,
  0x06, 0x00, 0x00, 0x00, 0x03, 0x00, 0x00, 0x00, 0x01, 0x00, 0x00, 0x00,
  0x16, 0x00, 0x00, 0x00, 0x03, 0x00, 0x00, 0x00, 0x15, 0x00, 0x00, 0x00,
  0x03, 0x00, 0x00, 0x00, 0x02, 0x00, 0x00, 0x00, 0xb2, 0xfe, 0xff, 0xff,
  0x24, 0x00, 0x00, 0x00, 0x00, 0x00, 0x00, 0x20, 0x24, 0x00, 0x00, 0x00,
  0x28, 0x00, 0x00, 0x00, 0x04, 0x00, 0x00, 0x00, 0x00, 0x00, 0x0e, 0x00,
  0x08, 0x00, 0x00, 0x00, 0x00, 0x00, 0x00, 0x00, 0x00, 0x00, 0x04, 0x00,
  0x0e, 0x00, 0x00, 0x00, 0x01, 0x00, 0x00, 0x00, 0x01, 0x00, 0x00, 0x00,
  0x15, 0x00, 0x00, 0x00, 0x04, 0x00, 0x00, 0x00, 0x14, 0x00, 0x00, 0x00,
  0x05, 0x00, 0x00, 0x00, 0x04, 0x00, 0x00, 0x00, 0x04, 0x00, 0x00, 0x00,
  0xfe, 0xfe, 0xff, 0xff, 0x14, 0x00, 0x00, 0x00, 0x00, 0x00, 0x00, 0x37,
  0x14, 0x00, 0x00, 0x00, 0x18, 0x00, 0x00, 0x00, 0x03, 0x00, 0x00, 0x00,
  0xee, 0xfe, 0xff, 0xff, 0x00, 0x00, 0x00, 0x02, 0x01, 0x00, 0x00, 0x00,
  0x14, 0x00, 0x00, 0x00, 0x01, 0x00, 0x00, 0x00, 0x13, 0x00, 0x00, 0x00,
  0x00, 0x00, 0x0a, 0x00, 0x10, 0x00, 0x0c, 0x00, 0x08, 0x00, 0x04, 0x00,
  0x0a, 0x00, 0x00, 0x00, 0x0c, 0x00, 0x00, 0x00, 0x10, 0x00, 0x00, 0x00,
  0x02, 0x00, 0x00, 0x00, 0x01, 0x00, 0x00, 0x00, 0x13, 0x00, 0x00, 0x00,
  0x01, 0x00, 0x00, 0x00, 0x12, 0x00, 0x00, 0x00, 0x5a, 0xff, 0xff, 0xff,
  0x14, 0x00, 0x00, 0x00, 0x00, 0x00, 0x00, 0x08, 0x10, 0x00, 0x00, 0x00,
  0x14, 0x00, 0x00, 0x00, 0x01, 0x00, 0x00, 0x00, 0x34, 0xec, 0xff, 0xff,
  0x01, 0x00, 0x00, 0x00, 0x12, 0x00, 0x00, 0x00, 0x03, 0x00, 0x00, 0x00,
  0x11, 0x00, 0x00, 0x00, 0x07, 0x00, 0x00, 0x00, 0x06, 0x00, 0x00, 0x00,
  0x8e, 0xff, 0xff, 0xff, 0x14, 0x00, 0x00, 0x00, 0x00, 0x00, 0x00, 0x08,
  0x14, 0x00, 0x00, 0x00, 0x18, 0x00, 0x00, 0x00, 0x01, 0x00, 0x00, 0x00,
  0x7e, 0xff, 0xff, 0xff, 0x00, 0x00, 0x00, 0x01, 0x01, 0x00, 0x00, 0x00,
  0x11, 0x00, 0x00, 0x00, 0x03, 0x00, 0x00, 0x00, 0x10, 0x00, 0x00, 0x00,
  0x09, 0x00, 0x00, 0x00, 0x08, 0x00, 0x00, 0x00, 0xc6, 0xff, 0xff, 0xff,
  0x14, 0x00, 0x00, 0x00, 0x00, 0x00, 0x00, 0x08, 0x14, 0x00, 0x00, 0x00,
  0x18, 0x00, 0x00, 0x00, 0x01, 0x00, 0x00, 0x00, 0xb6, 0xff, 0xff, 0xff,
  0x00, 0x00, 0x00, 0x01, 0x01, 0x00, 0x00, 0x00, 0x10, 0x00, 0x00, 0x00,
  0x03, 0x00, 0x00, 0x00, 0x0f, 0x00, 0x00, 0x00, 0x0b, 0x00, 0x00, 0x00,
  0x0a, 0x00, 0x00, 0x00, 0x00, 0x00, 0x0e, 0x00, 0x1a, 0x00, 0x14, 0x00,
  0x10, 0x00, 0x0c, 0x00, 0x0b, 0x00, 0x04, 0x00, 0x0e, 0x00, 0x00, 0x00,
  0x1c, 0x00, 0x00, 0x00, 0x00, 0x00, 0x00, 0x08, 0x1c, 0x00, 0x00, 0x00,
  0x20, 0x00, 0x00, 0x00, 0x01, 0x00, 0x00, 0x00, 0x00, 0x00, 0x06, 0x00,
  0x08, 0x00, 0x07, 0x00, 0x06, 0x00, 0x00, 0x00, 0x00, 0x00, 0x00, 0x01,
  0x01, 0x00, 0x00, 0x00, 0x0f, 0x00, 0x00, 0x00, 0x03, 0x00, 0x00, 0x00,
  0x0e, 0x00, 0x00, 0x00, 0x0d, 0x00, 0x00, 0x00, 0x0c, 0x00, 0x00, 0x00,
  0x00, 0x00, 0x0a, 0x00, 0x0c, 0x00, 0x00, 0x00, 0x08, 0x00, 0x04, 0x00,
  0x0a, 0x00, 0x00, 0x00, 0x08, 0x00, 0x00, 0x00, 0x0c, 0x00, 0x00, 0x00,
  0x01, 0x00, 0x00, 0x00, 0x0e, 0x00, 0x00, 0x00, 0x02, 0x00, 0x00, 0x00,
  0x00, 0x00, 0x00, 0x00, 0x01, 0x00, 0x00, 0x00, 0x01, 0x00, 0x00, 0x00,
  0x17, 0x00, 0x00, 0x00, 0x01, 0x00, 0x00, 0x00, 0x00, 0x00, 0x00, 0x00,
  0x18, 0x00, 0x00, 0x00, 0xec, 0x12, 0x00, 0x00, 0x90, 0x12, 0x00, 0x00,
  0x3c, 0x12, 0x00, 0x00, 0x00, 0x12, 0x00, 0x00, 0xc0, 0x11, 0x00, 0x00,
  0x80, 0x11, 0x00, 0x00, 0x3c, 0x10, 0x00, 0x00, 0xf0, 0x0e, 0x00, 0x00,
  0x1c, 0x0d, 0x00, 0x00, 0x40, 0x0b, 0x00, 0x00, 0x2c, 0x0a, 0x00, 0x00,
  0x10, 0x09, 0x00, 0x00, 0x3c, 0x07, 0x00, 0x00, 0x60, 0x05, 0x00, 0x00,
  0xdc, 0x04, 0x00, 0x00, 0x28, 0x04, 0x00, 0x00, 0x6c, 0x03, 0x00, 0x00,
  0xb0, 0x02, 0x00, 0x00, 0x0c, 0x02, 0x00, 0x00, 0x88, 0x01, 0x00, 0x00,
  0x38, 0x01, 0x00, 0x00, 0xe4, 0x00, 0x00, 0x00, 0x8c, 0x00, 0x00, 0x00,
  0x04, 0x00, 0x00, 0x00, 0x8a, 0xed, 0xff, 0xff, 0x00, 0x00, 0x00, 0x01,
  0x18, 0x00, 0x00, 0x00, 0x24, 0x00, 0x00, 0x00, 0x44, 0x00, 0x00, 0x00,
  0x18, 0x00, 0x00, 0x00, 0x00, 0x00, 0x00, 0x09, 0x58, 0x00, 0x00, 0x00,
  0x03, 0x00, 0x00, 0x00, 0xff, 0xff, 0xff, 0xff, 0x0a, 0x00, 0x00, 0x00,
  0x02, 0x00, 0x00, 0x00, 0x74, 0xed, 0xff, 0xff, 0x08, 0x00, 0x00, 0x00,
  0x14, 0x00, 0x00, 0x00, 0x01, 0x00, 0x00, 0x00, 0x80, 0xff, 0xff, 0xff,
  0xff, 0xff, 0xff, 0xff, 0x00, 0x00, 0x00, 0x00, 0x01, 0x00, 0x00, 0x00,
  0x00, 0x00, 0x80, 0x3b, 0x1b, 0x00, 0x00, 0x00, 0x53, 0x74, 0x61, 0x74,
  0x65, 0x66, 0x75, 0x6c, 0x50, 0x61, 0x72, 0x74, 0x69, 0x74, 0x69, 0x6f,
  0x6e, 0x65, 0x64, 0x43, 0x61, 0x6c, 0x6c, 0x5f, 0x31, 0x3a, 0x30, 0x00,
  0x03, 0x00, 0x00, 0x00, 0x01, 0x00, 0x00, 0x00, 0x0a, 0x00, 0x00, 0x00,
  0x02, 0x00, 0x00, 0x00, 0x66, 0xee, 0xff, 0xff, 0x00, 0x00, 0x00, 0x01,
  0x14, 0x00, 0x00, 0x00, 0x14, 0x00, 0x00, 0x00, 0x17, 0x00, 0x00, 0x00,
  0x00, 0x00, 0x00, 0x02, 0x34, 0x00, 0x00, 0x00, 0x50, 0xee, 0xff, 0xff,
  0x24, 0x00, 0x00, 0x00, 0x73, 0x65, 0x71, 0x75, 0x65, 0x6e, 0x74, 0x69,
  0x61, 0x6c, 0x5f, 0x31, 0x2f, 0x72, 0x65, 0x73, 0x68, 0x61, 0x70, 0x65,
  0x5f, 0x31, 0x2f, 0x52, 0x65, 0x73, 0x68, 0x61, 0x70, 0x65, 0x2f, 0x73,
  0x68, 0x61, 0x70, 0x65, 0x00, 0x00, 0x00, 0x00, 0x01, 0x00, 0x00, 0x00,
  0x03, 0x00, 0x00, 0x00, 0xba, 0xee, 0xff, 0xff, 0x00, 0x00, 0x00, 0x01,
  0x14, 0x00, 0x00, 0x00, 0x14, 0x00, 0x00, 0x00, 0x16, 0x00, 0x00, 0x00,
  0x00, 0x00, 0x00, 0x02, 0x34, 0x00, 0x00, 0x00, 0xa4, 0xee, 0xff, 0xff,
  0x24, 0x00, 0x00, 0x00, 0x73, 0x65, 0x71, 0x75, 0x65, 0x6e, 0x74, 0x69,
  0x61, 0x6c, 0x5f, 0x31, 0x2f, 0x72, 0x65, 0x73, 0x68, 0x61, 0x70, 0x65,
  0x5f, 0x31, 0x2f, 0x73, 0x74, 0x72, 0x69, 0x64, 0x65, 0x64, 0x5f, 0x73,
  0x6c, 0x69, 0x63, 0x65, 0x00, 0x00, 0x00, 0x00, 0x00, 0x00, 0x00, 0x00,
  0x0a, 0xef, 0xff, 0xff, 0x00, 0x00, 0x00, 0x01, 0x14, 0x00, 0x00, 0x00,
  0x14, 0x00, 0x00, 0x00, 0x15, 0x00, 0x00, 0x00, 0x00, 0x00, 0x00, 0x02,
  0x2c, 0x00, 0x00, 0x00, 0xf4, 0xee, 0xff, 0xff, 0x1c, 0x00, 0x00, 0x00,
  0x73, 0x65, 0x71, 0x75, 0x65, 0x6e, 0x74, 0x69, 0x61, 0x6c, 0x5f, 0x31,
  0x2f, 0x72, 0x65, 0x73, 0x68, 0x61, 0x70, 0x65, 0x5f, 0x31, 0x2f, 0x53,
  0x68, 0x61, 0x70, 0x65, 0x00, 0x00, 0x00, 0x00, 0x01, 0x00, 0x00, 0x00,
  0x02, 0x00, 0x00, 0x00, 0xfe, 0xee, 0xff, 0xff, 0x00, 0x00, 0x00, 0x01,
  0x18, 0x00, 0x00, 0x00, 0x20, 0x00, 0x00, 0x00, 0x40, 0x00, 0x00, 0x00,
  0x14, 0x00, 0x00, 0x00, 0x00, 0x00, 0x00, 0x09, 0x58, 0x00, 0x00, 0x00,
  0x02, 0x00, 0x00, 0x00, 0xff, 0xff, 0xff, 0xff, 0x14, 0x00, 0x00, 0x00,
  0xe4, 0xee, 0xff, 0xff, 0x08, 0x00, 0x00, 0x00, 0x14, 0x00, 0x00, 0x00,
  0x01, 0x00, 0x00, 0x00, 0x80, 0xff, 0xff, 0xff, 0xff, 0xff, 0xff, 0xff,
  0x00, 0x00, 0x00, 0x00, 0x01, 0x00, 0x00, 0x00, 0x00, 0x00, 0x80, 0x3b,
  0x1e, 0x00, 0x00, 0x00, 0x73, 0x65, 0x71, 0x75, 0x65, 0x6e, 0x74, 0x69,
  0x61, 0x6c, 0x5f, 0x31, 0x2f, 0x64, 0x65, 0x6e, 0x73, 0x65, 0x5f, 0x33,
  0x5f, 0x31, 0x2f, 0x53, 0x69, 0x67, 0x6d, 0x6f, 0x69, 0x64, 0x00, 0x00,
  0x02, 0x00, 0x00, 0x00, 0x01, 0x00, 0x00, 0x00, 0x14, 0x00, 0x00, 0x00,
  0x7e, 0xef, 0xff, 0xff, 0x00, 0x00, 0x00, 0x01, 0x18, 0x00, 0x00, 0x00,
  0x20, 0x00, 0x00, 0x00, 0x40, 0x00, 0x00, 0x00, 0x13, 0x00, 0x00, 0x00,
  0x00, 0x00, 0x00, 0x09, 0x78, 0x00, 0x00, 0x00, 0x02, 0x00, 0x00, 0x00,
  0xff, 0xff, 0xff, 0xff, 0x14, 0x00, 0x00, 0x00, 0x64, 0xef, 0xff, 0xff,
  0x08, 0x00, 0x00, 0x00, 0x14, 0x00, 0x00, 0x00, 0x01, 0x00, 0x00, 0x00,
  0xf5, 0xff, 0xff, 0xff, 0xff, 0xff, 0xff, 0xff, 0x00, 0x00, 0x00, 0x00,
  0x01, 0x00, 0x00, 0x00, 0x59, 0xeb, 0xc1, 0x3c, 0x3c, 0x00, 0x00, 0x00,
  0x73, 0x65, 0x71, 0x75, 0x65, 0x6e, 0x74, 0x69, 0x61, 0x6c, 0x5f, 0x31,
  0x2f, 0x64, 0x65, 0x6e, 0x73, 0x65, 0x5f, 0x33, 0x5f, 0x31, 0x2f, 0x4d,
  0x61, 0x74, 0x4d, 0x75, 0x6c, 0x3b, 0x73, 0x65, 0x71, 0x75, 0x65, 0x6e,
  0x74, 0x69, 0x61, 0x6c, 0x5f, 0x31, 0x2f, 0x64, 0x65, 0x6e, 0x73, 0x65,
  0x5f, 0x33, 0x5f, 0x31, 0x2f, 0x42, 0x69, 0x61, 0x73, 0x41, 0x64, 0x64,
  0x00, 0x00, 0x00, 0x00, 0x02, 0x00, 0x00, 0x00, 0x01, 0x00, 0x00, 0x00,
  0x14, 0x00, 0x00, 0x00, 0x1e, 0xf0, 0xff, 0xff, 0x00, 0x00, 0x00, 0x01,
  0x18, 0x00, 0x00, 0x00, 0x20, 0x00, 0x00, 0x00, 0x3c, 0x00, 0x00, 0x00,
  0x12, 0x00, 0x00, 0x00, 0x00, 0x00, 0x00, 0x09, 0x90, 0x00, 0x00, 0x00,
  0x02, 0x00, 0x00, 0x00, 0xff, 0xff, 0xff, 0xff, 0x20, 0x00, 0x00, 0x00,
  0x04, 0xf0, 0xff, 0xff, 0x08, 0x00, 0x00, 0x00, 0x10, 0x00, 0x00, 0x00,
  0x01, 0x00, 0x00, 0x00, 0x80, 0xff, 0xff, 0xff, 0xff, 0xff, 0xff, 0xff,
  0x01, 0x00, 0x00, 0x00, 0xd4, 0x78, 0xa2, 0x3c, 0x58, 0x00, 0x00, 0x00,
  0x73, 0x65, 0x71, 0x75, 0x65, 0x6e, 0x74, 0x69, 0x61, 0x6c, 0x5f, 0x31,
  0x2f, 0x64, 0x65, 0x6e, 0x73, 0x65, 0x5f, 0x32, 0x5f, 0x31, 0x2f, 0x4d,
  0x61, 0x74, 0x4d, 0x75, 0x6c, 0x3b, 0x73, 0x65, 0x71, 0x75, 0x65, 0x6e,
  0x74, 0x69, 0x61, 0x6c, 0x5f, 0x31, 0x2f, 0x64, 0x65, 0x6e, 0x73, 0x65,
  0x5f, 0x32, 0x5f, 0x31, 0x2f, 0x52, 0x65, 0x6c, 0x75, 0x3b, 0x73, 0x65,
  0x71, 0x75, 0x65, 0x6e, 0x74, 0x69, 0x61, 0x6c, 0x5f, 0x31, 0x2f, 0x64,
  0x65, 0x6e, 0x73, 0x65, 0x5f, 0x32, 0x5f, 0x31, 0x2f, 0x42, 0x69, 0x61,
  0x73, 0x41, 0x64, 0x64, 0x00, 0x00, 0x00, 0x00, 0x02, 0x00, 0x00, 0x00,
  0x01, 0x00, 0x00, 0x00, 0x20, 0x00, 0x00, 0x00, 0xd6, 0xf0, 0xff, 0xff,
  0x00, 0x00, 0x00, 0x01, 0x18, 0x00, 0x00, 0x00, 0x20, 0x00, 0x00, 0x00,
  0x3c, 0x00, 0x00, 0x00, 0x11, 0x00, 0x00, 0x00, 0x00, 0x00, 0x00, 0x09,
  0x90, 0x00, 0x00, 0x00, 0x02, 0x00, 0x00, 0x00, 0xff, 0xff, 0xff, 0xff,
  0x10, 0x00, 0x00, 0x00, 0xbc, 0xf0, 0xff, 0xff, 0x08, 0x00, 0x00, 0x00,
  0x10, 0x00, 0x00, 0x00, 0x01, 0x00, 0x00, 0x00, 0x80, 0xff, 0xff, 0xff,
  0xff, 0xff, 0xff, 0xff, 0x01, 0x00, 0x00, 0x00, 0x3d, 0x95, 0x91, 0x3c,
  0x58, 0x00, 0x00, 0x00, 0x73, 0x65, 0x71, 0x75, 0x65, 0x6e, 0x74, 0x69,
  0x61, 0x6c, 0x5f, 0x31, 0x2f, 0x64, 0x65, 0x6e, 0x73, 0x65, 0x5f, 0x31,
  0x5f, 0x32, 0x2f, 0x4d, 0x61, 0x74, 0x4d, 0x75, 0x6c, 0x3b, 0x73, 0x65,
  0x71, 0x75, 0x65, 0x6e, 0x74, 0x69, 0x61, 0x6c, 0x5f, 0x31, 0x2f, 0x64,
  0x65, 0x6e, 0x73, 0x65, 0x5f, 0x31, 0x5f, 0x32, 0x2f, 0x52, 0x65, 0x6c,
  0x75, 0x3b, 0x73, 0x65, 0x71, 0x75, 0x65, 0x6e, 0x74, 0x69, 0x61, 0x6c,
  0x5f, 0x31, 0x2f, 0x64, 0x65, 0x6e, 0x73, 0x65, 0x5f, 0x31, 0x5f, 0x32,
  0x2f, 0x42, 0x69, 0x61, 0x73, 0x41, 0x64, 0x64, 0x00, 0x00, 0x00, 0x00,
  0x02, 0x00, 0x00, 0x00, 0x01, 0x00, 0x00, 0x00, 0x10, 0x00, 0x00, 0x00,
  0x8e, 0xf1, 0xff, 0xff, 0x00, 0x00, 0x00, 0x01, 0x18, 0x00, 0x00, 0x00,
  0x20, 0x00, 0x00, 0x00, 0x3c, 0x00, 0x00, 0x00, 0x10, 0x00, 0x00, 0x00,
  0x00, 0x00, 0x00, 0x09, 0x88, 0x00, 0x00, 0x00, 0x02, 0x00, 0x00, 0x00,
  0xff, 0xff, 0xff, 0xff, 0x20, 0x00, 0x00, 0x00, 0x74, 0xf1, 0xff, 0xff,
  0x08, 0x00, 0x00, 0x00, 0x10, 0x00, 0x00, 0x00, 0x01, 0x00, 0x00, 0x00,
  0x80, 0xff, 0xff, 0xff, 0xff, 0xff, 0xff, 0xff, 0x01, 0x00, 0x00, 0x00,
  0x14, 0xfa, 0x02, 0x3c, 0x52, 0x00, 0x00, 0x00, 0x73, 0x65, 0x71, 0x75,
  0x65, 0x6e, 0x74, 0x69, 0x61, 0x6c, 0x5f, 0x31, 0x2f, 0x64, 0x65, 0x6e,
  0x73, 0x65, 0x5f, 0x31, 0x2f, 0x4d, 0x61, 0x74, 0x4d, 0x75, 0x6c, 0x3b,
  0x73, 0x65, 0x71, 0x75, 0x65, 0x6e, 0x74, 0x69, 0x61, 0x6c, 0x5f, 0x31,
  0x2f, 0x64, 0x65, 0x6e, 0x73, 0x65, 0x5f, 0x31, 0x2f, 0x52, 0x65, 0x6c,
  0x75, 0x3b, 0x73, 0x65, 0x71, 0x75, 0x65, 0x6e, 0x74, 0x69, 0x61, 0x6c,
  0x5f, 0x31, 0x2f, 0x64, 0x65, 0x6e, 0x73, 0x65, 0x5f, 0x31, 0x2f, 0x42,
  0x69, 0x61, 0x73, 0x41, 0x64, 0x64, 0x00, 0x00, 0x02, 0x00, 0x00, 0x00,
  0x01, 0x00, 0x00, 0x00, 0x20, 0x00, 0x00, 0x00, 0x3e, 0xf2, 0xff, 0xff,
  0x00, 0x00, 0x00, 0x01, 0x18, 0x00, 0x00, 0x00, 0x20, 0x00, 0x00, 0x00,
  0x40, 0x00, 0x00, 0x00, 0x0f, 0x00, 0x00, 0x00, 0x00, 0x00, 0x00, 0x09,
  0x58, 0x00, 0x00, 0x00, 0x02, 0x00, 0x00, 0x00, 0xff, 0xff, 0xff, 0xff,
  0x14, 0x00, 0x00, 0x00, 0x24, 0xf2, 0xff, 0xff, 0x08, 0x00, 0x00, 0x00,
  0x14, 0x00, 0x00, 0x00, 0x01, 0x00, 0x00, 0x00, 0x80, 0xff, 0xff, 0xff,
  0xff, 0xff, 0xff, 0xff, 0x00, 0x00, 0x00, 0x00, 0x01, 0x00, 0x00, 0x00,
  0xce, 0xde, 0x6f, 0x3b, 0x1e, 0x00, 0x00, 0x00, 0x73, 0x65, 0x71, 0x75,
  0x65, 0x6e, 0x74, 0x69, 0x61, 0x6c, 0x5f, 0x31, 0x2f, 0x66, 0x6c, 0x61,
  0x74, 0x74, 0x65, 0x6e, 0x5f, 0x31, 0x2f, 0x52, 0x65, 0x73, 0x68, 0x61,
  0x70, 0x65, 0x00, 0x00, 0x02, 0x00, 0x00, 0x00, 0x01, 0x00, 0x00, 0x00,
  0x14, 0x00, 0x00, 0x00, 0x16, 0xf3, 0xff, 0xff, 0x00, 0x00, 0x00, 0x01,
  0x14, 0x00, 0x00, 0x00, 0xa8, 0x01, 0x00, 0x00, 0x0e, 0x00, 0x00, 0x00,
  0x00, 0x00, 0x00, 0x09, 0xb4, 0x01, 0x00, 0x00, 0x94, 0xf2, 0xff, 0xff,
  0x08, 0x00, 0x00, 0x00, 0x0c, 0x01, 0x00, 0x00, 0x20, 0x00, 0x00, 0x00,
  0x00, 0x00, 0x00, 0x00, 0x00, 0x00, 0x00, 0x00, 0x00, 0x00, 0x00, 0x00,
  0x00, 0x00, 0x00, 0x00, 0x00, 0x00, 0x00, 0x00, 0x00, 0x00, 0x00, 0x00,
  0x00, 0x00, 0x00, 0x00, 0x00, 0x00, 0x00, 0x00, 0x00, 0x00, 0x00, 0x00,
  0x00, 0x00, 0x00, 0x00, 0x00, 0x00, 0x00, 0x00, 0x00, 0x00, 0x00, 0x00,
  0x00, 0x00, 0x00, 0x00, 0x00, 0x00, 0x00, 0x00, 0x00, 0x00, 0x00, 0x00,
  0x00, 0x00, 0x00, 0x00, 0x00, 0x00, 0x00, 0x00, 0x00, 0x00, 0x00, 0x00,
  0x00, 0x00, 0x00, 0x00, 0x00, 0x00, 0x00, 0x00, 0x00, 0x00, 0x00, 0x00,
  0x00, 0x00, 0x00, 0x00, 0x00, 0x00, 0x00, 0x00, 0x00, 0x00, 0x00, 0x00,
  0x00, 0x00, 0x00, 0x00, 0x00, 0x00, 0x00, 0x00, 0x00, 0x00, 0x00, 0x00,
  0x00, 0x00, 0x00, 0x00, 0x00, 0x00, 0x00, 0x00, 0x00, 0x00, 0x00, 0x00,
  0x00, 0x00, 0x00, 0x00, 0x00, 0x00, 0x00, 0x00, 0x00, 0x00, 0x00, 0x00,
  0x00, 0x00, 0x00, 0x00, 0x00, 0x00, 0x00, 0x00, 0x00, 0x00, 0x00, 0x00,
  0x00, 0x00, 0x00, 0x00, 0x00, 0x00, 0x00, 0x00, 0x00, 0x00, 0x00, 0x00,
  0x00, 0x00, 0x00, 0x00, 0x00, 0x00, 0x00, 0x00, 0x00, 0x00, 0x00, 0x00,
  0x00, 0x00, 0x00, 0x00, 0x00, 0x00, 0x00, 0x00, 0x00, 0x00, 0x00, 0x00,
  0x00, 0x00, 0x00, 0x00, 0x00, 0x00, 0x00, 0x00, 0x00, 0x00, 0x00, 0x00,
  0x00, 0x00, 0x00, 0x00, 0x00, 0x00, 0x00, 0x00, 0x00, 0x00, 0x00, 0x00,
  0x00, 0x00, 0x00, 0x00, 0x00, 0x00, 0x00, 0x00, 0x00, 0x00, 0x00, 0x00,
  0x00, 0x00, 0x00, 0x00, 0x00, 0x00, 0x00, 0x00, 0x00, 0x00, 0x00, 0x00,
  0x00, 0x00, 0x00, 0x00, 0x00, 0x00, 0x00, 0x00, 0x00, 0x00, 0x00, 0x00,
  0x00, 0x00, 0x00, 0x00, 0x00, 0x00, 0x00, 0x00, 0x00, 0x00, 0x00, 0x00,
  0x00, 0x00, 0x00, 0x00, 0x00, 0x00, 0x00, 0x00, 0x20, 0x00, 0x00, 0x00,
  0x18, 0xde, 0x2e, 0x3b, 0xb4, 0xd4, 0x92, 0x3b, 0x6e, 0xb0, 0xbc, 0x3b,
  0xf5, 0x23, 0x92, 0x3b, 0x84, 0x70, 0xa4, 0x3b, 0xe6, 0x51, 0xcd, 0x3b,
  0x90, 0x56, 0x9f, 0x3b, 0x08, 0x41, 0xa4, 0x3b, 0x4e, 0x9e, 0xb3, 0x3b,
  0xf4, 0x65, 0xa1, 0x3b, 0x6a, 0x78, 0x3d, 0x3b, 0xaa, 0x63, 0x8d, 0x3b,
  0x3f, 0x96, 0xd1, 0x3b, 0xa0, 0x4b, 0x92, 0x3b, 0x13, 0xab, 0xa7, 0x3b,
  0x6d, 0x5b, 0x9e, 0x3b, 0x3d, 0x63, 0xe8, 0x3b, 0xb8, 0x60, 0x88, 0x3b,
  0xa4, 0x26, 0x9e, 0x3b, 0xea, 0x06, 0x16, 0x3b, 0x9a, 0x29, 0x8d, 0x3b,
  0x1d, 0xb7, 0x91, 0x3b, 0xfc, 0x83, 0x95, 0x3b, 0xbf, 0x85, 0xaf, 0x3b,
  0xa3, 0xda, 0x36, 0x3b, 0xe0, 0x9d, 0xe7, 0x3b, 0xcc, 0x74, 0x29, 0x3b,
  0xf0, 0x14, 0xb6, 0x3b, 0x6e, 0xe2, 0xc3, 0x3b, 0xd7, 0x48, 0x94, 0x3b,
  0x1e, 0xf0, 0x2a, 0x3b, 0x7c, 0xd0, 0xa6, 0x3b, 0x12, 0x00, 0x00, 0x00,
  0x74, 0x66, 0x6c, 0x2e, 0x70, 0x73, 0x65, 0x75, 0x64, 0x6f, 0x5f, 0x71,
  0x63, 0x6f, 0x6e, 0x73, 0x74, 0x37, 0x00, 0x00, 0x02, 0x00, 0x00, 0x00,
  0x20, 0x00, 0x00, 0x00, 0x14, 0x00, 0x00, 0x00, 0xee, 0xf4, 0xff, 0xff,
  0x00, 0x00, 0x00, 0x01, 0x14, 0x00, 0x00, 0x00, 0xa4, 0x01, 0x00, 0x00,
  0x0d, 0x00, 0x00, 0x00, 0x00, 0x00, 0x00, 0x02, 0xb0, 0x01, 0x00, 0x00,
  0x6c, 0xf4, 0xff, 0xff, 0x08, 0x00, 0x00, 0x00, 0x08, 0x01, 0x00, 0x00,
  0x20, 0x00, 0x00, 0x00, 0x00, 0x00, 0x00, 0x00, 0x00, 0x00, 0x00, 0x00,
  0x00, 0x00, 0x00, 0x00, 0x00, 0x00, 0x00, 0x00, 0x00, 0x00, 0x00, 0x00,
  0x00, 0x00, 0x00, 0x00, 0x00, 0x00, 0x00, 0x00, 0x00, 0x00, 0x00, 0x00,
  0x00, 0x00, 0x00, 0x00, 0x00, 0x00, 0x00, 0x00, 0x00, 0x00, 0x00, 0x00,
  0x00, 0x00, 0x00, 0x00, 0x00, 0x00, 0x00, 0x00, 0x00, 0x00, 0x00, 0x00,
  0x00, 0x00, 0x00, 0x00, 0x00, 0x00, 0x00, 0x00, 0x00, 0x00, 0x00, 0x00,
  0x00, 0x00, 0x00, 0x00, 0x00, 0x00, 0x00, 0x00, 0x00, 0x00, 0x00, 0x00,
  0x00, 0x00, 0x00, 0x00, 0x00, 0x00, 0x00, 0x00, 0x00, 0x00, 0x00, 0x00,
  0x00, 0x00, 0x00, 0x00, 0x00, 0x00, 0x00, 0x00, 0x00, 0x00, 0x00, 0x00,
  0x00, 0x00, 0x00, 0x00, 0x00, 0x00, 0x00, 0x00, 0x00, 0x00, 0x00, 0x00,
  0x00, 0x00, 0x00, 0x00, 0x00, 0x00, 0x00, 0x00, 0x00, 0x00, 0x00, 0x00,
  0x00, 0x00, 0x00, 0x00, 0x00, 0x00, 0x00, 0x00, 0x00, 0x00, 0x00, 0x00,
  0x00, 0x00, 0x00, 0x00, 0x00, 0x00, 0x00, 0x00, 0x00, 0x00, 0x00, 0x00,
  0x00, 0x00, 0x00, 0x00, 0x00, 0x00, 0x00, 0x00, 0x00, 0x00, 0x00, 0x00,
  0x00, 0x00, 0x00, 0x00, 0x00, 0x00, 0x00, 0x00, 0x00, 0x00, 0x00, 0x00,
  0x00, 0x00, 0x00, 0x00, 0x00, 0x00, 0x00, 0x00, 0x00, 0x00, 0x00, 0x00,
  0x00, 0x00, 0x00, 0x00, 0x00, 0x00, 0x00, 0x00, 0x00, 0x00, 0x00, 0x00,
  0x00, 0x00, 0x00, 0x00, 0x00, 0x00, 0x00, 0x00, 0x00, 0x00, 0x00, 0x00,
  0x00, 0x00, 0x00, 0x00, 0x00, 0x00, 0x00, 0x00, 0x00, 0x00, 0x00, 0x00,
  0x00, 0x00, 0x00, 0x00, 0x00, 0x00, 0x00, 0x00, 0x00, 0x00, 0x00, 0x00,
  0x00, 0x00, 0x00, 0x00, 0x00, 0x00, 0x00, 0x00, 0x00, 0x00, 0x00, 0x00,
  0x00, 0x00, 0x00, 0x00, 0x00, 0x00, 0x00, 0x00, 0x20, 0x00, 0x00, 0x00,
  0x8a, 0xd9, 0x23, 0x37, 0x5f, 0x94, 0x89, 0x37, 0xf0, 0xcc, 0xb0, 0x37,
  0xc3, 0xee, 0x88, 0x37, 0x29, 0x14, 0x9a, 0x37, 0x28, 0x62, 0xc0, 0x37,
  0x7e, 0x4c, 0x95, 0x37, 0xab, 0xe7, 0x99, 0x37, 0x1f, 0x4d, 0xa8, 0x37,
  0xa7, 0x3a, 0x97, 0x37, 0x52, 0x88, 0x31, 0x37, 0x1a, 0x7b, 0x84, 0x37,
  0xae, 0x61, 0xc4, 0x37, 0xee, 0x13, 0x89, 0x37, 0xa4, 0x1a, 0x9d, 0x37,
  0x2d, 0x61, 0x94, 0x37, 0xe7, 0xbe, 0xd9, 0x37, 0xfb, 0x91, 0x7f, 0x37,
  0xb8, 0x2f, 0x94, 0x37, 0x07, 0x93, 0x0c, 0x37, 0xb2, 0x44, 0x84, 0x37,
  0xc6, 0x88, 0x88, 0x37, 0x59, 0x18, 0x8c, 0x37, 0xa1, 0x76, 0xa4, 0x37,
  0x43, 0x55, 0x2b, 0x37, 0xf9, 0x05, 0xd9, 0x37, 0x86, 0xc7, 0x1e, 0x37,
  0x05, 0x9c, 0xaa, 0x37, 0xe1, 0x8a, 0xb7, 0x37, 0x0f, 0xf1, 0x8a, 0x37,
  0xf2, 0x2a, 0x20, 0x37, 0xd3, 0x4d, 0x9c, 0x37, 0x12, 0x00, 0x00, 0x00,
  0x74, 0x66, 0x6c, 0x2e, 0x70, 0x73, 0x65, 0x75, 0x64, 0x6f, 0x5f, 0x71,
  0x63, 0x6f, 0x6e, 0x73, 0x74, 0x36, 0x00, 0x00, 0x01, 0x00, 0x00, 0x00,
  0x20, 0x00, 0x00, 0x00, 0xbe, 0xf6, 0xff, 0xff, 0x00, 0x00, 0x00, 0x01,
  0x14, 0x00, 0x00, 0x00, 0xe8, 0x00, 0x00, 0x00, 0x0c, 0x00, 0x00, 0x00,
  0x00, 0x00, 0x00, 0x09, 0xf4, 0x00, 0x00, 0x00, 0x3c, 0xf6, 0xff, 0xff,
  0x08, 0x00, 0x00, 0x00, 0x8c, 0x00, 0x00, 0x00, 0x10, 0x00, 0x00, 0x00,
  0x00, 0x00, 0x00, 0x00, 0x00, 0x00, 0x00, 0x00, 0x00, 0x00, 0x00, 0x00,
  0x00, 0x00, 0x00, 0x00, 0x00, 0x00, 0x00, 0x00, 0x00, 0x00, 0x00, 0x00,
  0x00, 0x00, 0x00, 0x00, 0x00, 0x00, 0x00, 0x00, 0x00, 0x00, 0x00, 0x00,
  0x00, 0x00, 0x00, 0x00, 0x00, 0x00, 0x00, 0x00, 0x00, 0x00, 0x00, 0x00,
  0x00, 0x00, 0x00, 0x00, 0x00, 0x00, 0x00, 0x00, 0x00, 0x00, 0x00, 0x00,
  0x00, 0x00, 0x00, 0x00, 0x00, 0x00, 0x00, 0x00, 0x00, 0x00, 0x00, 0x00,
  0x00, 0x00, 0x00, 0x00, 0x00, 0x00, 0x00, 0x00, 0x00, 0x00, 0x00, 0x00,
  0x00, 0x00, 0x00, 0x00, 0x00, 0x00, 0x00, 0x00, 0x00, 0x00, 0x00, 0x00,
  0x00, 0x00, 0x00, 0x00, 0x00, 0x00, 0x00, 0x00, 0x00, 0x00, 0x00, 0x00,
  0x00, 0x00, 0x00, 0x00, 0x00, 0x00, 0x00, 0x00, 0x00, 0x00, 0x00, 0x00,
  0x00, 0x00, 0x00, 0x00, 0x00, 0x00, 0x00, 0x00, 0x00, 0x00, 0x00, 0x00,
  0x10, 0x00, 0x00, 0x00, 0x8e, 0xca, 0xb0, 0x3b, 0x02, 0x71, 0x29, 0x3b,
  0x6c, 0xb5, 0xd6, 0x3b, 0x79, 0x8c, 0x88, 0x3b, 0x23, 0x68, 0xcf, 0x3b,
  0xc3, 0x03, 0xd7, 0x3b, 0x1c, 0xf3, 0x8f, 0x3b, 0x23, 0x44, 0x35, 0x3b,
  0xa5, 0x95, 0xaa, 0x3b, 0xb2, 0x49, 0x9b, 0x3b, 0x42, 0xb7, 0xb6, 0x3b,
  0x84, 0x4e, 0x8e, 0x3b, 0xff, 0x33, 0xa6, 0x3b, 0xa6, 0x76, 0x46, 0x3b,
  0xc7, 0xc6, 0x2e, 0x3b, 0xc4, 0x47, 0xa5, 0x3b, 0x12, 0x00, 0x00, 0x00,
  0x74, 0x66, 0x6c, 0x2e, 0x70, 0x73, 0x65, 0x75, 0x64, 0x6f, 0x5f, 0x71,
  0x63, 0x6f, 0x6e, 0x73, 0x74, 0x35, 0x00, 0x00, 0x02, 0x00, 0x00, 0x00,
  0x10, 0x00, 0x00, 0x00, 0x20, 0x00, 0x00, 0x00, 0xd6, 0xf7, 0xff, 0xff,
  0x00, 0x00, 0x00, 0x01, 0x14, 0x00, 0x00, 0x00, 0xe4, 0x00, 0x00, 0x00,
  0x0b, 0x00, 0x00, 0x00, 0x00, 0x00, 0x00, 0x02, 0xf0, 0x00, 0x00, 0x00,
  0x54, 0xf7, 0xff, 0xff, 0x08, 0x00, 0x00, 0x00, 0x88, 0x00, 0x00, 0x00,
  0x10, 0x00, 0x00, 0x00, 0x00, 0x00, 0x00, 0x00, 0x00, 0x00, 0x00, 0x00,
  0x00, 0x00, 0x00, 0x00, 0x00, 0x00, 0x00, 0x00, 0x00, 0x00, 0x00, 0x00,
  0x00, 0x00, 0x00, 0x00, 0x00, 0x00, 0x00, 0x00, 0x00, 0x00, 0x00, 0x00,
  0x00, 0x00, 0x00, 0x00, 0x00, 0x00, 0x00, 0x00, 0x00, 0x00, 0x00, 0x00,
  0x00, 0x00, 0x00, 0x00, 0x00, 0x00, 0x00, 0x00, 0x00, 0x00, 0x00, 0x00,
  0x00, 0x00, 0x00, 0x00, 0x00, 0x00, 0x00, 0x00, 0x00, 0x00, 0x00, 0x00,
  0x00, 0x00, 0x00, 0x00, 0x00, 0x00, 0x00, 0x00, 0x00, 0x00, 0x00, 0x00,
  0x00, 0x00, 0x00, 0x00, 0x00, 0x00, 0x00, 0x00, 0x00, 0x00, 0x00, 0x00,
  0x00, 0x00, 0x00, 0x00, 0x00, 0x00, 0x00, 0x00, 0x00, 0x00, 0x00, 0x00,
  0x00, 0x00, 0x00, 0x00, 0x00, 0x00, 0x00, 0x00, 0x00, 0x00, 0x00, 0x00,
  0x00, 0x00, 0x00, 0x00, 0x00, 0x00, 0x00, 0x00, 0x00, 0x00, 0x00, 0x00,
  0x10, 0x00, 0x00, 0x00, 0x1f, 0xe7, 0x34, 0x38, 0xd1, 0x61, 0xad, 0x37,
  0xbe, 0xb3, 0x5b, 0x38, 0x73, 0xb9, 0x0b, 0x38, 0xfb, 0x3a, 0x54, 0x38,
  0xe7, 0x03, 0x5c, 0x38, 0x26, 0x4c, 0x13, 0x38, 0x59, 0x7b, 0xb9, 0x37,
  0x43, 0x8d, 0x2e, 0x38, 0x3d, 0xe6, 0x1e, 0x38, 0x1a, 0xf7, 0x3a, 0x38,
  0xc6, 0x9d, 0x11, 0x38, 0x87, 0x11, 0x2a, 0x38, 0x3f, 0x14, 0xcb, 0x37,
  0x5a, 0xd7, 0xb2, 0x37, 0xcd, 0x1f, 0x29, 0x38, 0x12, 0x00, 0x00, 0x00,
  0x74, 0x66, 0x6c, 0x2e, 0x70, 0x73, 0x65, 0x75, 0x64, 0x6f, 0x5f, 0x71,
  0x63, 0x6f, 0x6e, 0x73, 0x74, 0x34, 0x00, 0x00, 0x01, 0x00, 0x00, 0x00,
  0x10, 0x00, 0x00, 0x00, 0xe6, 0xf8, 0xff, 0xff, 0x00, 0x00, 0x00, 0x01,
  0x14, 0x00, 0x00, 0x00, 0xa8, 0x01, 0x00, 0x00, 0x0a, 0x00, 0x00, 0x00,
  0x00, 0x00, 0x00, 0x09, 0xb4, 0x01, 0x00, 0x00, 0x64, 0xf8, 0xff, 0xff,
  0x08, 0x00, 0x00, 0x00, 0x0c, 0x01, 0x00, 0x00, 0x20, 0x00, 0x00, 0x00,
  0x00, 0x00, 0x00, 0x00, 0x00, 0x00, 0x00, 0x00, 0x00, 0x00, 0x00, 0x00,
  0x00, 0x00, 0x00, 0x00, 0x00, 0x00, 0x00, 0x00, 0x00, 0x00, 0x00, 0x00,
  0x00, 0x00, 0x00, 0x00, 0x00, 0x00, 0x00, 0x00, 0x00, 0x00, 0x00, 0x00,
  0x00, 0x00, 0x00, 0x00, 0x00, 0x00, 0x00, 0x00, 0x00, 0x00, 0x00, 0x00,
  0x00, 0x00, 0x00, 0x00, 0x00, 0x00, 0x00, 0x00, 0x00, 0x00, 0x00, 0x00,
  0x00, 0x00, 0x00, 0x00, 0x00, 0x00, 0x00, 0x00, 0x00, 0x00, 0x00, 0x00,
  0x00, 0x00, 0x00, 0x00, 0x00, 0x00, 0x00, 0x00, 0x00, 0x00, 0x00, 0x00,
  0x00, 0x00, 0x00, 0x00, 0x00, 0x00, 0x00, 0x00, 0x00, 0x00, 0x00, 0x00,
  0x00, 0x00, 0x00, 0x00, 0x00, 0x00, 0x00, 0x00, 0x00, 0x00, 0x00, 0x00,
  0x00, 0x00, 0x00, 0x00, 0x00, 0x00, 0x00, 0x00, 0x00, 0x00, 0x00, 0x00,
  0x00, 0x00, 0x00, 0x00, 0x00, 0x00, 0x00, 0x00, 0x00, 0x00, 0x00, 0x00,
  0x00, 0x00, 0x00, 0x00, 0x00, 0x00, 0x00, 0x00, 0x00, 0x00, 0x00, 0x00,
  0x00, 0x00, 0x00, 0x00, 0x00, 0x00, 0x00, 0x00, 0x00, 0x00, 0x00, 0x00,
  0x00, 0x00, 0x00, 0x00, 0x00, 0x00, 0x00, 0x00, 0x00, 0x00, 0x00, 0x00,
  0x00, 0x00, 0x00, 0x00, 0x00, 0x00, 0x00, 0x00, 0x00, 0x00, 0x00, 0x00,
  0x00, 0x00, 0x00, 0x00, 0x00, 0x00, 0x00, 0x00, 0x00, 0x00, 0x00, 0x00,
  0x00, 0x00, 0x00, 0x00, 0x00, 0x00, 0x00, 0x00, 0x00, 0x00, 0x00, 0x00,
  0x00, 0x00, 0x00, 0x00, 0x00, 0x00, 0x00, 0x00, 0x00, 0x00, 0x00, 0x00,
  0x00, 0x00, 0x00, 0x00, 0x00, 0x00, 0x00, 0x00, 0x00, 0x00, 0x00, 0x00,
  0x00, 0x00, 0x00, 0x00, 0x00, 0x00, 0x00, 0x00, 0x00, 0x00, 0x00, 0x00,
  0x00, 0x00, 0x00, 0x00, 0x00, 0x00, 0x00, 0x00, 0x00, 0x00, 0x00, 0x00,
  0x00, 0x00, 0x00, 0x00, 0x00, 0x00, 0x00, 0x00, 0x20, 0x00, 0x00, 0x00,
  0x6a, 0x72, 0xaf, 0x3b, 0xc9, 0x9a, 0x71, 0x3b, 0x3d, 0xa2, 0xa3, 0x3b,
  0x2f, 0x5f, 0xb4, 0x3b, 0x50, 0x3d, 0xa0, 0x3b, 0xf7, 0x08, 0x62, 0x3b,
  0x62, 0x28, 0xaa, 0x3b, 0x16, 0xde, 0x9c, 0x3b, 0x45, 0xf9, 0x64, 0x3b,
  0xae, 0x95, 0x8c, 0x3b, 0x22, 0x4b, 0x7d, 0x3b, 0x62, 0xc2, 0x29, 0x3b,
  0x63, 0xf5, 0xbc, 0x3b, 0xb1, 0x55, 0xc9, 0x3b, 0x88, 0xf0, 0x85, 0x3b,
  0x13, 0x58, 0x92, 0x3b, 0x8d, 0x73, 0x27, 0x3b, 0x18, 0x64, 0x7b, 0x3b,
  0x16, 0x03, 0x67, 0x3b, 0x60, 0x88, 0x32, 0x3b, 0xf5, 0x65, 0xb1, 0x3b,
  0x02, 0x75, 0xaf, 0x3b, 0xda, 0x96, 0x21, 0x3b, 0xab, 0x0c, 0x2e, 0x3b,
  0x75, 0x57, 0xac, 0x3b, 0xb1, 0x0f, 0x73, 0x3b, 0x7d, 0x45, 0x2f, 0x3b,
  0xdf, 0x6e, 0xa0, 0x3b, 0x2d, 0x57, 0x2e, 0x3b, 0x3e, 0xbf, 0x9d, 0x3b,
  0xd8, 0xa7, 0xb6, 0x3b, 0xab, 0x32, 0xa4, 0x3b, 0x12, 0x00, 0x00, 0x00,
  0x74, 0x66, 0x6c, 0x2e, 0x70, 0x73, 0x65, 0x75, 0x64, 0x6f, 0x5f, 0x71,
  0x63, 0x6f, 0x6e, 0x73, 0x74, 0x33, 0x00, 0x00, 0x02, 0x00, 0x00, 0x00,
  0x20, 0x00, 0x00, 0x00, 0x10, 0x00, 0x00, 0x00, 0xbe, 0xfa, 0xff, 0xff,
  0x00, 0x00, 0x00, 0x01, 0x14, 0x00, 0x00, 0x00, 0xa4, 0x01, 0x00, 0x00,
  0x09, 0x00, 0x00, 0x00, 0x00, 0x00, 0x00, 0x02, 0xb0, 0x01, 0x00, 0x00,
  0x3c, 0xfa, 0xff, 0xff, 0x08, 0x00, 0x00, 0x00, 0x08, 0x01, 0x00, 0x00,
  0x20, 0x00, 0x00, 0x00, 0x00, 0x00, 0x00, 0x00, 0x00, 0x00, 0x00, 0x00,
  0x00, 0x00, 0x00, 0x00, 0x00, 0x00, 0x00, 0x00, 0x00, 0x00, 0x00, 0x00,
  0x00, 0x00, 0x00, 0x00, 0x00, 0x00, 0x00, 0x00, 0x00, 0x00, 0x00, 0x00,
  0x00, 0x00, 0x00, 0x00, 0x00, 0x00, 0x00, 0x00, 0x00, 0x00, 0x00, 0x00,
  0x00, 0x00, 0x00, 0x00, 0x00, 0x00, 0x00, 0x00, 0x00, 0x00, 0x00, 0x00,
  0x00, 0x00, 0x00, 0x00, 0x00, 0x00, 0x00, 0x00, 0x00, 0x00, 0x00, 0x00,
  0x00, 0x00, 0x00, 0x00, 0x00, 0x00, 0x00, 0x00, 0x00, 0x00, 0x00, 0x00,
  0x00, 0x00, 0x00, 0x00, 0x00, 0x00, 0x00, 0x00, 0x00, 0x00, 0x00, 0x00,
  0x00, 0x00, 0x00, 0x00, 0x00, 0x00, 0x00, 0x00, 0x00, 0x00, 0x00, 0x00,
  0x00, 0x00, 0x00, 0x00, 0x00, 0x00, 0x00, 0x00, 0x00, 0x00, 0x00, 0x00,
  0x00, 0x00, 0x00, 0x00, 0x00, 0x00, 0x00, 0x00, 0x00, 0x00, 0x00, 0x00,
  0x00, 0x00, 0x00, 0x00, 0x00, 0x00, 0x00, 0x00, 0x00, 0x00, 0x00, 0x00,
  0x00, 0x00, 0x00, 0x00, 0x00, 0x00, 0x00, 0x00, 0x00, 0x00, 0x00, 0x00,
  0x00, 0x00, 0x00, 0x00, 0x00, 0x00, 0x00, 0x00, 0x00, 0x00, 0x00, 0x00,
  0x00, 0x00, 0x00, 0x00, 0x00, 0x00, 0x00, 0x00, 0x00, 0x00, 0x00, 0x00,
  0x00, 0x00, 0x00, 0x00, 0x00, 0x00, 0x00, 0x00, 0x00, 0x00, 0x00, 0x00,
  0x00, 0x00, 0x00, 0x00, 0x00, 0x00, 0x00, 0x00, 0x00, 0x00, 0x00, 0x00,
  0x00, 0x00, 0x00, 0x00, 0x00, 0x00, 0x00, 0x00, 0x00, 0x00, 0x00, 0x00,
  0x00, 0x00, 0x00, 0x00, 0x00, 0x00, 0x00, 0x00, 0x00, 0x00, 0x00, 0x00,
  0x00, 0x00, 0x00, 0x00, 0x00, 0x00, 0x00, 0x00, 0x00, 0x00, 0x00, 0x00,
  0x00, 0x00, 0x00, 0x00, 0x00, 0x00, 0x00, 0x00, 0x00, 0x00, 0x00, 0x00,
  0x00, 0x00, 0x00, 0x00, 0x00, 0x00, 0x00, 0x00, 0x20, 0x00, 0x00, 0x00,
  0x2b, 0x8c, 0xc7, 0x38, 0x85, 0x65, 0x89, 0x38, 0x92, 0x1c, 0xba, 0x38,
  0x20, 0x26, 0xcd, 0x38, 0x48, 0x40, 0xb6, 0x38, 0xd9, 0x8a, 0x80, 0x38,
  0x23, 0x88, 0xc1, 0x38, 0x7a, 0x6a, 0xb2, 0x38, 0xac, 0x36, 0x82, 0x38,
  0x78, 0xe5, 0x9f, 0x38, 0x37, 0x0b, 0x90, 0x38, 0x20, 0x14, 0x41, 0x38,
  0x4a, 0xea, 0xd6, 0x38, 0xd0, 0xfd, 0xe4, 0x38, 0xa4, 0x56, 0x98, 0x38,
  0x66, 0x72, 0xa6, 0x38, 0x22, 0x74, 0x3e, 0x38, 0x3f, 0xf6, 0x8e, 0x38,
  0x6b, 0x5f, 0x83, 0x38, 0xa5, 0x0e, 0x4b, 0x38, 0x55, 0xc4, 0xc9, 0x38,
  0x1e, 0x8f, 0xc7, 0x38, 0x4a, 0xc9, 0x37, 0x38, 0x47, 0xf5, 0x45, 0x38,
  0x02, 0x04, 0xc4, 0x38, 0x95, 0x39, 0x8a, 0x38, 0x12, 0x59, 0x47, 0x38,
  0xa6, 0x78, 0xb6, 0x38, 0x06, 0x4a, 0x46, 0x38, 0x90, 0x6a, 0xb3, 0x38,
  0x19, 0xbf, 0xcf, 0x38, 0xd7, 0xc0, 0xba, 0x38, 0x12, 0x00, 0x00, 0x00,
  0x74, 0x66, 0x6c, 0x2e, 0x70, 0x73, 0x65, 0x75, 0x64, 0x6f, 0x5f, 0x71,
  0x63, 0x6f, 0x6e, 0x73, 0x74, 0x32, 0x00, 0x00, 0x01, 0x00, 0x00, 0x00,
  0x20, 0x00, 0x00, 0x00, 0x8e, 0xfc, 0xff, 0xff, 0x00, 0x00, 0x00, 0x01,
  0x14, 0x00, 0x00, 0x00, 0x18, 0x01, 0x00, 0x00, 0x08, 0x00, 0x00, 0x00,
  0x00, 0x00, 0x00, 0x09, 0x24, 0x01, 0x00, 0x00, 0x0c, 0xfc, 0xff, 0xff,
  0x08, 0x00, 0x00, 0x00, 0xac, 0x00, 0x00, 0x00, 0x14, 0x00, 0x00, 0x00,
  0x00, 0x00, 0x00, 0x00, 0x00, 0x00, 0x00, 0x00, 0x00, 0x00, 0x00, 0x00,
  0x00, 0x00, 0x00, 0x00, 0x00, 0x00, 0x00, 0x00, 0x00, 0x00, 0x00, 0x00,
  0x00, 0x00, 0x00, 0x00, 0x00, 0x00, 0x00, 0x00, 0x00, 0x00, 0x00, 0x00,
  0x00, 0x00, 0x00, 0x00, 0x00, 0x00, 0x00, 0x00, 0x00, 0x00, 0x00, 0x00,
  0x00, 0x00, 0x00, 0x00, 0x00, 0x00, 0x00, 0x00, 0x00, 0x00, 0x00, 0x00,
  0x00, 0x00, 0x00, 0x00, 0x00, 0x00, 0x00, 0x00, 0x00, 0x00, 0x00, 0x00,
  0x00, 0x00, 0x00, 0x00, 0x00, 0x00, 0x00, 0x00, 0x00, 0x00, 0x00, 0x00,
  0x00, 0x00, 0x00, 0x00, 0x00, 0x00, 0x00, 0x00, 0x00, 0x00, 0x00, 0x00,
  0x00, 0x00, 0x00, 0x00, 0x00, 0x00, 0x00, 0x00, 0x00, 0x00, 0x00, 0x00,
  0x00, 0x00, 0x00, 0x00, 0x00, 0x00, 0x00, 0x00, 0x00, 0x00, 0x00, 0x00,
  0x00, 0x00, 0x00, 0x00, 0x00, 0x00, 0x00, 0x00, 0x00, 0x00, 0x00, 0x00,
  0x00, 0x00, 0x00, 0x00, 0x00, 0x00, 0x00, 0x00, 0x00, 0x00, 0x00, 0x00,
  0x00, 0x00, 0x00, 0x00, 0x00, 0x00, 0x00, 0x00, 0x00, 0x00, 0x00, 0x00,
  0x00, 0x00, 0x00, 0x00, 0x00, 0x00, 0x00, 0x00, 0x14, 0x00, 0x00, 0x00,
  0x74, 0x1c, 0xde, 0x3b, 0x9a, 0x38, 0xaa, 0x3b, 0xf5, 0x77, 0x09, 0x3c,
  0xa1, 0xe0, 0xb4, 0x3b, 0xa8, 0xb9, 0x21, 0x3c, 0x57, 0xb6, 0xb4, 0x3b,
  0x78, 0xc2, 0xeb, 0x3b, 0x37, 0xff, 0x85, 0x3b, 0x58, 0xb9, 0x0b, 0x3c,
  0xf3, 0xaa, 0xa4, 0x3b, 0x35, 0x12, 0x11, 0x3c, 0xd6, 0xc2, 0xbd, 0x3b,
  0x5a, 0x88, 0xef, 0x3b, 0xcf, 0x36, 0x83, 0x3b, 0x4f, 0x92, 0x1c, 0x3c,
  0x05, 0xb3, 0x89, 0x3b, 0x02, 0x1c, 0x3c, 0x3c, 0x93, 0xb5, 0xb2, 0x3b,
  0x19, 0x7b, 0xe7, 0x3b, 0x1f, 0xa2, 0xcc, 0x3b, 0x12, 0x00, 0x00, 0x00,
  0x74, 0x66, 0x6c, 0x2e, 0x70, 0x73, 0x65, 0x75, 0x64, 0x6f, 0x5f, 0x71,
  0x63, 0x6f, 0x6e, 0x73, 0x74, 0x31, 0x00, 0x00, 0x02, 0x00, 0x00, 0x00,
  0x14, 0x00, 0x00, 0x00, 0x20, 0x00, 0x00, 0x00, 0xd6, 0xfd, 0xff, 0xff,
  0x00, 0x00, 0x00, 0x01, 0x14, 0x00, 0x00, 0x00, 0x14, 0x01, 0x00, 0x00,
  0x07, 0x00, 0x00, 0x00, 0x00, 0x00, 0x00, 0x02, 0x20, 0x01, 0x00, 0x00,
  0x54, 0xfd, 0xff, 0xff, 0x08, 0x00, 0x00, 0x00, 0xa8, 0x00, 0x00, 0x00,
  0x14, 0x00, 0x00, 0x00, 0x00, 0x00, 0x00, 0x00, 0x00, 0x00, 0x00, 0x00,
  0x00, 0x00, 0x00, 0x00, 0x00, 0x00, 0x00, 0x00, 0x00, 0x00, 0x00, 0x00,
  0x00, 0x00, 0x00, 0x00, 0x00, 0x00, 0x00, 0x00, 0x00, 0x00, 0x00, 0x00,
  0x00, 0x00, 0x00, 0x00, 0x00, 0x00, 0x00, 0x00, 0x00, 0x00, 0x00, 0x00,
  0x00, 0x00, 0x00, 0x00, 0x00, 0x00, 0x00, 0x00, 0x00, 0x00, 0x00, 0x00,
  0x00, 0x00, 0x00, 0x00, 0x00, 0x00, 0x00, 0x00, 0x00, 0x00, 0x00, 0x00,
  0x00, 0x00, 0x00, 0x00, 0x00, 0x00, 0x00, 0x00, 0x00, 0x00, 0x00, 0x00,
  0x00, 0x00, 0x00, 0x00, 0x00, 0x00, 0x00, 0x00, 0x00, 0x00, 0x00, 0x00,
  0x00, 0x00, 0x00, 0x00, 0x00, 0x00, 0x00, 0x00, 0x00, 0x00, 0x00, 0x00,
  0x00, 0x00, 0x00, 0x00, 0x00, 0x00, 0x00, 0x00, 0x00, 0x00, 0x00, 0x00,
  0x00, 0x00, 0x00, 0x00, 0x00, 0x00, 0x00, 0x00, 0x00, 0x00, 0x00, 0x00,
  0x00, 0x00, 0x00, 0x00, 0x00, 0x00, 0x00, 0x00, 0x00, 0x00, 0x00, 0x00,
  0x00, 0x00, 0x00, 0x00, 0x00, 0x00, 0x00, 0x00, 0x00, 0x00, 0x00, 0x00,
  0x00, 0x00, 0x00, 0x00, 0x00, 0x00, 0x00, 0x00, 0x14, 0x00, 0x00, 0x00,
  0xd7, 0xf6, 0x0c, 0x39, 0x52, 0x10, 0xd8, 0x38, 0x96, 0x7d, 0x2e, 0x39,
  0x0a, 0x97, 0xe5, 0x38, 0xa3, 0x47, 0x4d, 0x39, 0x5c, 0x61, 0xe5, 0x38,
  0x56, 0xa0, 0x15, 0x39, 0x7f, 0x15, 0xaa, 0x38, 0x79, 0x5a, 0x31, 0x39,
  0xcd, 0x03, 0xd1, 0x38, 0xfc, 0x23, 0x38, 0x39, 0xb8, 0xdd, 0xf0, 0x38,
  0x57, 0x05, 0x18, 0x39, 0x3b, 0x8d, 0xa6, 0x38, 0xf8, 0xbc, 0x46, 0x39,
  0x8e, 0xc8, 0xae, 0x38, 0x04, 0xc5, 0x6e, 0x39, 0x80, 0xd6, 0xe2, 0x38,
  0x27, 0xe9, 0x12, 0x39, 0x2d, 0xdf, 0x01, 0x39, 0x11, 0x00, 0x00, 0x00,
  0x74, 0x66, 0x6c, 0x2e, 0x70, 0x73, 0x65, 0x75, 0x64, 0x6f, 0x5f, 0x71,
  0x63, 0x6f, 0x6e, 0x73, 0x74, 0x00, 0x00, 0x00, 0x01, 0x00, 0x00, 0x00,
  0x14, 0x00, 0x00, 0x00, 0x16, 0xff, 0xff, 0xff, 0x00, 0x00, 0x00, 0x01,
  0x14, 0x00, 0x00, 0x00, 0x14, 0x00, 0x00, 0x00, 0x06, 0x00, 0x00, 0x00,
  0x00, 0x00, 0x00, 0x02, 0x1c, 0x00, 0x00, 0x00, 0x00, 0xff, 0xff, 0xff,
  0x0f, 0x00, 0x00, 0x00, 0x61, 0x72, 0x69, 0x74, 0x68, 0x2e, 0x63, 0x6f,
  0x6e, 0x73, 0x74, 0x61, 0x6e, 0x74, 0x34, 0x00, 0x01, 0x00, 0x00, 0x00,
  0x01, 0x00, 0x00, 0x00, 0x52, 0xff, 0xff, 0xff, 0x00, 0x00, 0x00, 0x01,
  0x14, 0x00, 0x00, 0x00, 0x14, 0x00, 0x00, 0x00, 0x05, 0x00, 0x00, 0x00,
  0x00, 0x00, 0x00, 0x02, 0x1c, 0x00, 0x00, 0x00, 0x3c, 0xff, 0xff, 0xff,
  0x0f, 0x00, 0x00, 0x00, 0x61, 0x72, 0x69, 0x74, 0x68, 0x2e, 0x63, 0x6f,
  0x6e, 0x73, 0x74, 0x61, 0x6e, 0x74, 0x33, 0x00, 0x01, 0x00, 0x00, 0x00,
  0x01, 0x00, 0x00, 0x00, 0x8e, 0xff, 0xff, 0xff, 0x00, 0x00, 0x00, 0x01,
  0x14, 0x00, 0x00, 0x00, 0x14, 0x00, 0x00, 0x00, 0x04, 0x00, 0x00, 0x00,
  0x00, 0x00, 0x00, 0x02, 0x1c, 0x00, 0x00, 0x00, 0x78, 0xff, 0xff, 0xff,
  0x0f, 0x00, 0x00, 0x00, 0x61, 0x72, 0x69, 0x74, 0x68, 0x2e, 0x63, 0x6f,
  0x6e, 0x73, 0x74, 0x61, 0x6e, 0x74, 0x32, 0x00, 0x00, 0x00, 0x00, 0x00,
  0xc6, 0xff, 0xff, 0xff, 0x00, 0x00, 0x00, 0x01, 0x14, 0x00, 0x00, 0x00,
  0x14, 0x00, 0x00, 0x00, 0x03, 0x00, 0x00, 0x00, 0x00, 0x00, 0x00, 0x02,
  0x1c, 0x00, 0x00, 0x00, 0xb0, 0xff, 0xff, 0xff, 0x0f, 0x00, 0x00, 0x00,
  0x61, 0x72, 0x69, 0x74, 0x68, 0x2e, 0x63, 0x6f, 0x6e, 0x73, 0x74, 0x61,
  0x6e, 0x74, 0x31, 0x00, 0x00, 0x00, 0x00, 0x00, 0x00, 0x00, 0x16, 0x00,
  0x1c, 0x00, 0x18, 0x00, 0x17, 0x00, 0x10, 0x00, 0x0c, 0x00, 0x08, 0x00,
  0x00, 0x00, 0x00, 0x00, 0x00, 0x00, 0x07, 0x00, 0x16, 0x00, 0x00, 0x00,
  0x00, 0x00, 0x00, 0x01, 0x18, 0x00, 0x00, 0x00, 0x18, 0x00, 0x00, 0x00,
  0x02, 0x00, 0x00, 0x00, 0x00, 0x00, 0x00, 0x02, 0x20, 0x00, 0x00, 0x00,
  0x04, 0x00, 0x04, 0x00, 0x04, 0x00, 0x00, 0x00, 0x0e, 0x00, 0x00, 0x00,
  0x61, 0x72, 0x69, 0x74, 0x68, 0x2e, 0x63, 0x6f, 0x6e, 0x73, 0x74, 0x61,
  0x6e, 0x74, 0x00, 0x00, 0x01, 0x00, 0x00, 0x00, 0x02, 0x00, 0x00, 0x00,
  0x00, 0x00, 0x16, 0x00, 0x20, 0x00, 0x1c, 0x00, 0x1b, 0x00, 0x14, 0x00,
  0x10, 0x00, 0x0c, 0x00, 0x00, 0x00, 0x00, 0x00, 0x08, 0x00, 0x07, 0x00,
  0x16, 0x00, 0x00, 0x00, 0x00, 0x00, 0x00, 0x01, 0x18, 0x00, 0x00, 0x00,
  0x30, 0x00, 0x00, 0x00, 0x4c, 0x00, 0x00, 0x00, 0x01, 0x00, 0x00, 0x00,
  0x00, 0x00, 0x00, 0x09, 0x64, 0x00, 0x00, 0x00, 0x03, 0x00, 0x00, 0x00,
  0xff, 0xff, 0xff, 0xff, 0x0a, 0x00, 0x00, 0x00, 0x02, 0x00, 0x00, 0x00,
  0x0c, 0x00, 0x0c, 0x00, 0x00, 0x00, 0x00, 0x00, 0x08, 0x00, 0x04, 0x00,
  0x0c, 0x00, 0x00, 0x00, 0x08, 0x00, 0x00, 0x00, 0x10, 0x00, 0x00, 0x00,
  0x01, 0x00, 0x00, 0x00, 0x80, 0xff, 0xff, 0xff, 0xff, 0xff, 0xff, 0xff,
  0x01, 0x00, 0x00, 0x00, 0xce, 0xde, 0x6f, 0x3b, 0x1e, 0x00, 0x00, 0x00,
  0x73, 0x65, 0x72, 0x76, 0x69, 0x6e, 0x67, 0x5f, 0x64, 0x65, 0x66, 0x61,
  0x75, 0x6c, 0x74, 0x5f, 0x6b, 0x65, 0x72, 0x61, 0x73, 0x5f, 0x74, 0x65,
  0x6e, 0x73, 0x6f, 0x72, 0x3a, 0x30, 0x00, 0x00, 0x03, 0x00, 0x00, 0x00,
  0x01, 0x00, 0x00, 0x00, 0x0a, 0x00, 0x00, 0x00, 0x02, 0x00, 0x00, 0x00,
  0x06, 0x00, 0x00, 0x00, 0x74, 0x00, 0x00, 0x00, 0x54, 0x00, 0x00, 0x00,
  0x34, 0x00, 0x00, 0x00, 0x24, 0x00, 0x00, 0x00, 0x14, 0x00, 0x00, 0x00,
  0x04, 0x00, 0x00, 0x00, 0xb0, 0xff, 0xff, 0xff, 0x53, 0x00, 0x00, 0x00,
  0x00, 0x00, 0x00, 0x53, 0xbc, 0xff, 0xff, 0xff, 0x2d, 0x00, 0x00, 0x00,
  0x00, 0x00, 0x00, 0x2d, 0xc8, 0xff, 0xff, 0xff, 0x4d, 0x00, 0x00, 0x00,
  0x00, 0x00, 0x00, 0x4d, 0xf0, 0xff, 0xff, 0xff, 0x0e, 0x00, 0x00, 0x00,
  0x02, 0x00, 0x00, 0x00, 0x00, 0x00, 0x00, 0x0e, 0x0c, 0x00, 0x10, 0x00,
  0x0f, 0x00, 0x00, 0x00, 0x08, 0x00, 0x04, 0x00, 0x0c, 0x00, 0x00, 0x00,
  0x09, 0x00, 0x00, 0x00, 0x04, 0x00, 0x00, 0x00, 0x00, 0x00, 0x00, 0x09,
  0x0c, 0x00, 0x0c, 0x00, 0x0b, 0x00, 0x00, 0x00, 0x00, 0x00, 0x04, 0x00,
  0x0c, 0x00, 0x00, 0x00, 0x16, 0x00, 0x00, 0x00, 0x00, 0x00, 0x00, 0x16
};
unsigned int anomaly_model_tflite_len = 9336;
